{
  "!": 0,
  "!!": 3228,
  "!!!": 10185,
  "!!!!": 13896,
  "!!!!!": 50184,
  "!!!!!!!!": 34635,
  "!!\"": 37160,
  "!\"": 2474,
  "!\",": 40754,
  "!\".": 48220,
  "!'": 13679,
  "!'\"": 49296,
  "!)": 8133,
  "!),": 26290,
  "!).": 19588,
  "!,": 28265,
  "!--": 28112,
  "!.": 43179,
  "!/": 48443,
  "!:": 48725,
  "!?": 22857,
  "!?\"": 42720,
  "!]": 36463,
  "\"": 1,
  "\"!": 40484,
  "\"\"": 15931,
  "\"\"\"": 37811,
  "\"'": 30543,
  "\"(": 18109,
  "\")": 4943,
  "\"))": 48774,
  "\"),": 12340,
  "\").": 11074,
  "\");": 15341,
  "\",": 1600,
  "\",\"": 2430,
  "\"-": 26793,
  "\".": 1911,
  "\"...": 26214,
  "\".[": 42924,
  "\"/>": 26700,
  "\":": 1298,
  "\":\"": 2404,
  "\":\"\",\"": 34713,
  "\":\"\"},{\"": 47182,
  "\":\"/": 15473,
  "\":-": 48219,
  "\":[": 20598,
  "\":[\"": 26358,
  "\":[{\"": 32509,
  "\":{\"": 8351,
  "\";": 8172,
  "\">": 5320,
  "\"><": 22039,
  "\"></": 23984,
  "\"?": 13984,
  "\"[": 17912,
  "\"]": 8973,
  "\"],": 33116,
  "\"],\"": 34171,
  "\"]=>": 23785,
  "\"}": 20662,
  "\"},": 25719,
  "\"},\"": 13018,
  "\"},{\"": 11919,
  "\"}],\"": 42785,
  "\"âĢ¦": 24426,
  "\"âĢĶ": 15327,
  "#": 2,
  "##": 2235,
  "###": 21017,
  "####": 4242,
  "########": 7804,
  "################": 14468,
  "################################": 29113,
  "#$": 29953,
  "#$#$": 34206,
  "$": 3,
  "$$": 13702,
  "$$$$": 36737,
  "$,": 47113,
  "$.": 35307,
  "${": 38892,
  "%": 4,
  "%\"": 39658,
  "%%": 16626,
  "%%%%": 36917,
  "%)": 4407,
  "%),": 15920,
  "%).": 18823,
  "%);": 49563,
  "%,": 7441,
  "%-": 33963,
  "%.": 7225,
  "%:": 48529,
  "%;": 26525,
  "%]": 39850,
  "&": 5,
  "&&": 25226,
  "'": 6,
  "'\"": 29653,
  "''": 7061,
  "''''": 39115,
  "''.": 35384,
  "'';": 44648,
  "')": 11537,
  "'),": 33809,
  "').": 27691,
  "');": 24036,
  "',": 3256,
  "',\"": 40264,
  "','": 41707,
  "'-": 29001,
  "'.": 4458,
  "'.\"": 30827,
  "'/": 26488,
  "':": 10354,
  "';": 17020,
  "'>": 44167,
  "'?": 30960,
  "']": 20520,
  "'d": 1549,
  "'ll": 1183,
  "'m": 1101,
  "'re": 821,
  "'s": 338,
  "'t": 470,
  "'ve": 1053,
  "(": 7,
  "(\"": 7203,
  "($": 16763,
  "(&": 39434,
  "('": 10786,
  "((": 19510,
  "()": 3419,
  "())": 28955,
  "());": 35430,
  "(),": 22784,
  "().": 22446,
  "():": 33529,
  "();": 9783,
  "(){": 39893,
  "(*": 46491,
  "(-": 32590,
  "([": 26933,
  "(\\": 38016,
  "(_": 28264,
  "({": 15090,
  ")": 8,
  ")!": 31520,
  ")\"": 16725,
  ")\",": 42501,
  ")'": 33047,
  ")(": 5769,
  "))": 4008,
  ")))": 22305,
  "))))": 35514,
  ")),": 36911,
  ")).": 29720,
  "));": 18125,
  ")*": 27493,
  ")+": 47762,
  "),": 828,
  "),\"": 27267,
  ")-": 13219,
  ")--": 42944,
  ").": 737,
  ").\"": 21387,
  ")...": 26513,
  ").[": 42669,
  ")/": 20679,
  "):": 2599,
  ");": 1776,
  ")</": 36475,
  ")=": 47505,
  ")=(": 35793,
  ")?": 19427,
  ")[": 38381,
  ")\\": 19415,
  ")]": 15437,
  ")].": 25295,
  "){": 19953,
  ")|": 14726,
  ")}": 38165,
  ")âĢĶ": 27920,
  "*": 9,
  "*)": 28104,
  "**": 1174,
  "***": 8162,
  "****": 2466,
  "*****": 35625,
  "********": 4557,
  "************": 46068,
  "****************": 8412,
  "********************************": 17174,
  "*,": 25666,
  "*.": 24620,
  "*/": 16208,
  "*/(": 40278,
  "*:": 47026,
  "*=-": 48069,
  "+": 10,
  "+(": 33747,
  "+)": 28988,
  "++": 4880,
  "++)": 29577,
  "+++": 45340,
  "++++": 14030,
  "++++++++": 25128,
  "++++++++++++++++": 44627,
  "++;": 47253,
  "+,": 28200,
  "+.": 27613,
  "+=": 47932,
  ",": 11,
  ",\"": 553,
  ",'": 4032,
  ",'\"": 16078,
  ",''": 14004,
  ",)": 35751,
  ",,": 9832,
  ",,,,": 23846,
  ",,,,,,,,": 47682,
  ",-": 12095,
  ",.": 38508,
  ",...": 42303,
  ",[": 17414,
  ",âĢĶ": 34976,
  "-": 12,
  "-\"": 21215,
  "-$": 22799,
  "-'": 19355,
  "-(": 30420,
  "-)": 25106,
  "-+": 19529,
  "-+-+": 27097,
  "-+-+-+-+": 42744,
  "-,": 20995,
  "--": 438,
  "--+": 44785,
  "---": 6329,
  "----": 650,
  "-----": 30934,
  "------": 23031,
  "-------": 26866,
  "--------": 982,
  "---------": 45537,
  "----------": 35937,
  "-----------": 32284,
  "------------": 10541,
  "-------------": 32501,
  "--------------": 26171,
  "---------------": 24305,
  "----------------": 1783,
  "--------------------": 19351,
  "------------------------": 22369,
  "--------------------------------": 3880,
  "------------------------------------------------": 47232,
  "--------------------------------------------------------": 43801,
  "----------------------------------------------------------------": 10097,
  "-->": 46904,
  "-.": 34507,
  "->": 3784,
  "-[": 49146,
  "-|": 22831,
  ".": 13,
  ".\"": 526,
  ".\"\"": 32203,
  ".\")": 19570,
  ".\",": 33283,
  ".\",\"": 41424,
  ".\"[": 18161,
  ".#": 32535,
  ".$": 48082,
  ".'": 2637,
  ".'\"": 11496,
  ".''": 13531,
  ".''.": 50113,
  ".(": 12195,
  ".)": 2014,
  ".),": 12179,
  ".).": 15729,
  ".):": 47308,
  ".*": 15885,
  ".,": 1539,
  ".,\"": 44388,
  ".-": 7874,
  ".--": 9816,
  "..": 492,
  "...": 986,
  "...\"": 9313,
  "...)": 23029,
  "....": 1106,
  ".....": 12359,
  "......": 16317,
  ".......": 25780,
  "........": 2109,
  ".........": 34617,
  ".............": 44274,
  "................": 4181,
  "..................": 49129,
  "........................": 27754,
  "................................": 8864,
  "................................................................": 23193,
  "...?": 44825,
  "...]": 22345,
  "../": 40720,
  "./": 19571,
  ".:": 11207,
  ".;": 15089,
  ".<": 29847,
  ".</": 25970,
  ".>>": 32756,
  ".?": 40791,
  ".[": 3693,
  ".]": 8183,
  "._": 13557,
  ".}": 44587,
  ".âĢĵ": 37585,
  ".âĢĶ": 13402,
  ".ãĢį": 43735,
  ".ï¿½": 40670,
  "/": 14,
  "/\"": 30487,
  "/#": 31113,
  "/$": 32624,
  "/(": 29006,
  "/)": 34729,
  "/*": 15211,
  "/**": 35343,
  "/+": 28404,
  "/,": 47454,
  "/-": 16327,
  "/.": 11757,
  "//": 1003,
  "///": 20379,
  "////": 9705,
  "////////": 16150,
  "////////////////": 27246,
  "////////////////////////////////": 49704,
  "/>": 15913,
  "/?": 20924,
  "/_": 47835,
  "/âĢĭ": 27643,
  "0": 15,
  "00": 405,
  "000": 830,
  "0000": 2388,
  "00000": 20483,
  "000000": 10535,
  "0000000": 24598,
  "00000000": 8269,
  "0000000000000000": 25645,
  "00007": 44808,
  "0001": 18005,
  "0002": 34215,
  "001": 8298,
  "0010": 37187,
  "002": 21601,
  "00200000": 36490,
  "003": 11245,
  "004": 22914,
  "005": 22544,
  "006": 28041,
  "007": 25816,
  "008": 25257,
  "009": 28694,
  "01": 486,
  "010": 20943,
  "0100": 39103,
  "011": 28555,
  "012": 30206,
  "013": 30273,
  "014": 28645,
  "015": 25150,
  "016": 27037,
  "017": 29326,
  "018": 29159,
  "019": 30484,
  "02": 2999,
  "020": 33618,
  "0200": 44613,
  "021": 46821,
  "022": 44087,
  "023": 45310,
  "024": 40839,
  "025": 36629,
  "026": 45987,
  "027": 44698,
  "028": 46957,
  "029": 48891,
  "03": 3070,
  "030": 39101,
  "031": 43637,
  "032": 49959,
  "033": 44427,
  "034": 49841,
  "035": 44215,
  "036": 48597,
  "04": 3023,
  "040": 36676,
  "041": 50049,
  "043": 48768,
  "044": 43977,
  "045": 40350,
  "046": 45438,
  "047": 48000,
  "048": 47202,
  "05": 2713,
  "050": 28669,
  "052": 37841,
  "055": 47838,
  "057": 43526,
  "059": 46712,
  "06": 3312,
  "060": 41322,
  "07": 2998,
  "070": 43509,
  "075": 46396,
  "08": 2919,
  "080": 33057,
  "083": 48290,
  "088": 46556,
  "089": 49352,
  "09": 2931,
  "090": 42534,
  "1": 16,
  "10": 940,
  "100": 3064,
  "1000": 12825,
  "10000": 49388,
  "1001": 47705,
  "1007": 44318,
  "101": 8784,
  "1016": 27956,
  "102": 15377,
  "1024": 35500,
  "1027": 40403,
  "103": 15197,
  "104": 13464,
  "105": 13348,
  "106": 15801,
  "107": 15982,
  "108": 15711,
  "1080": 24045,
  "109": 14454,
  "11": 1157,
  "110": 11442,
  "1100": 42060,
  "111": 16243,
  "1111": 26259,
  "112": 14686,
  "113": 16616,
  "114": 16562,
  "115": 15363,
  "116": 18298,
  "117": 17657,
  "118": 16817,
  "119": 16315,
  "12": 1065,
  "120": 10232,
  "1200": 27550,
  "121": 19244,
  "122": 18376,
  "123": 10163,
  "124": 17464,
  "125": 11623,
  "126": 19420,
  "127": 16799,
  "128": 12762,
  "129": 18741,
  "13": 1485,
  "130": 12952,
  "131": 22042,
  "132": 19924,
  "133": 16945,
  "134": 19880,
  "135": 17059,
  "136": 20809,
  "137": 19708,
  "138": 20107,
  "139": 20219,
  "14": 1415,
  "140": 15187,
  "141": 23756,
  "142": 23726,
  "143": 21139,
  "144": 18444,
  "145": 18781,
  "146": 20964,
  "147": 20198,
  "148": 18294,
  "149": 19442,
  "15": 1314,
  "150": 8628,
  "1500": 33698,
  "151": 24309,
  "152": 17827,
  "153": 21395,
  "154": 21526,
  "155": 18742,
  "156": 21599,
  "157": 18458,
  "158": 21273,
  "159": 19707,
  "16": 1433,
  "160": 14198,
  "1600": 36150,
  "161": 25948,
  "162": 25061,
  "163": 24136,
  "164": 23237,
  "165": 20986,
  "166": 23055,
  "167": 21940,
  "168": 14656,
  "169": 22172,
  "17": 1558,
  "170": 17279,
  "171": 27192,
  "172": 23628,
  "173": 25399,
  "174": 22985,
  "175": 17430,
  "176": 24096,
  "177": 22413,
  "178": 23188,
  "179": 21738,
  "18": 1507,
  "180": 15259,
  "1800": 39188,
  "181": 27057,
  "182": 24294,
  "183": 24839,
  "184": 22883,
  "185": 21652,
  "186": 25096,
  "187": 23451,
  "188": 20356,
  "189": 23362,
  "19": 1129,
  "190": 19782,
  "1900": 48104,
  "191": 26492,
  "192": 17477,
  "1920": 40454,
  "193": 24943,
  "194": 22913,
  "1945": 41931,
  "195": 22186,
  "1950": 42751,
  "1959": 45403,
  "196": 25272,
  "1960": 38503,
  "1963": 45192,
  "1964": 46477,
  "1965": 45271,
  "1966": 44227,
  "1967": 42830,
  "1968": 42246,
  "1969": 38391,
  "197": 24991,
  "1970": 30986,
  "1971": 41208,
  "1972": 41023,
  "1973": 40220,
  "1974": 40828,
  "1975": 38449,
  "1976": 38108,
  "1977": 37781,
  "1978": 37950,
  "1979": 33581,
  "198": 22337,
  "1980": 23664,
  "1981": 35411,
  "1982": 30763,
  "1983": 29279,
  "1984": 28296,
  "1985": 29110,
  "1986": 28054,
  "1987": 27301,
  "1988": 26709,
  "1989": 25475,
  "199": 19104,
  "1990": 19891,
  "1991": 24529,
  "1992": 23847,
  "1993": 24465,
  "1994": 22666,
  "1995": 21908,
  "1996": 22288,
  "1997": 21498,
  "1998": 21113,
  "1999": 18946,
  "2": 17,
  "20": 1238,
  "200": 2167,
  "2000": 11024,
  "200000": 33470,
  "2001": 14585,
  "2002": 16942,
  "2003": 16088,
  "2004": 15724,
  "2005": 14315,
  "2006": 13330,
  "2007": 12726,
  "2008": 11528,
  "2009": 10531,
  "201": 1264,
  "2010": 10333,
  "2011": 9804,
  "2012": 6999,
  "2013": 6390,
  "2014": 4967,
  "2015": 4626,
  "2016": 5304,
  "2017": 5539,
  "2018": 7908,
  "2019": 23344,
  "202": 19004,
  "2020": 42334,
  "203": 22416,
  "204": 18638,
  "20439": 47936,
  "205": 21261,
  "206": 22136,
  "207": 22745,
  "208": 21315,
  "209": 22567,
  "21": 2481,
  "210": 21536,
  "211": 21895,
  "212": 21777,
  "213": 26427,
  "214": 22291,
  "215": 23349,
  "216": 20666,
  "217": 24591,
  "218": 28727,
  "219": 28896,
  "22": 1828,
  "220": 17572,
  "2200": 34294,
  "221": 26115,
  "222": 23148,
  "223": 22047,
  "224": 24137,
  "225": 18182,
  "226": 24909,
  "227": 24403,
  "228": 23815,
  "229": 23539,
  "23": 1954,
  "230": 19214,
  "231": 25667,
  "232": 24339,
  "233": 25429,
  "234": 24409,
  "235": 22370,
  "236": 24940,
  "237": 24693,
  "238": 23721,
  "239": 23516,
  "24": 1731,
  "240": 16102,
  "241": 28872,
  "242": 27877,
  "243": 26660,
  "244": 25707,
  "245": 22995,
  "246": 26912,
  "247": 23753,
  "248": 23045,
  "249": 21626,
  "25": 1495,
  "250": 9031,
  "2500": 44688,
  "251": 28072,
  "252": 22800,
  "253": 28592,
  "254": 24970,
  "255": 13381,
  "256": 11645,
  "257": 28676,
  "258": 25600,
  "259": 25191,
  "26": 2075,
  "260": 21719,
  "261": 30057,
  "262": 29119,
  "263": 29558,
  "264": 18897,
  "265": 22980,
  "266": 25540,
  "267": 25674,
  "268": 25022,
  "269": 26276,
  "27": 1983,
  "270": 20233,
  "271": 28977,
  "272": 29807,
  "273": 27367,
  "274": 28857,
  "275": 23195,
  "276": 27988,
  "277": 27019,
  "278": 25870,
  "279": 26050,
  "28": 2078,
  "280": 21033,
  "281": 30368,
  "282": 32568,
  "283": 30290,
  "284": 30336,
  "285": 26279,
  "286": 27033,
  "287": 27800,
  "288": 25270,
  "289": 27693,
  "29": 1959,
  "290": 24369,
  "291": 33551,
  "292": 32759,
  "293": 31675,
  "294": 27696,
  "295": 25710,
  "296": 27137,
  "297": 26561,
  "298": 27728,
  "299": 22579,
  "3": 18,
  "30": 1270,
  "300": 6200,
  "3000": 23924,
  "301": 18938,
  "302": 22709,
  "303": 22572,
  "304": 21288,
  "305": 22515,
  "306": 20548,
  "307": 22996,
  "308": 21495,
  "309": 26895,
  "31": 3132,
  "310": 26717,
  "311": 36244,
  "312": 27970,
  "313": 25838,
  "314": 33638,
  "315": 27936,
  "316": 33400,
  "317": 34125,
  "318": 36042,
  "319": 35175,
  "32": 2624,
  "320": 19504,
  "321": 36453,
  "322": 37283,
  "323": 32637,
  "324": 33916,
  "325": 26582,
  "326": 39195,
  "327": 34159,
  "328": 34256,
  "329": 37967,
  "33": 2091,
  "330": 26073,
  "331": 31697,
  "332": 32148,
  "333": 20370,
  "3333": 24840,
  "334": 31380,
  "335": 27326,
  "336": 29211,
  "337": 31496,
  "338": 28460,
  "339": 29626,
  "34": 2682,
  "340": 23601,
  "341": 33660,
  "342": 31575,
  "343": 32118,
  "344": 33535,
  "345": 27712,
  "346": 30557,
  "347": 30995,
  "348": 28978,
  "349": 27371,
  "35": 2327,
  "350": 14877,
  "351": 35273,
  "352": 33394,
  "353": 33319,
  "354": 32182,
  "355": 28567,
  "356": 32066,
  "357": 27277,
  "358": 31128,
  "359": 30743,
  "36": 2623,
  "360": 15277,
  "361": 35195,
  "362": 35667,
  "363": 35447,
  "364": 26780,
  "365": 24760,
  "366": 32459,
  "367": 27824,
  "368": 27412,
  "369": 30803,
  "37": 2718,
  "370": 20167,
  "371": 38056,
  "372": 36720,
  "373": 34770,
  "374": 31020,
  "375": 22318,
  "376": 32128,
  "377": 26514,
  "378": 30695,
  "379": 29088,
  "38": 2548,
  "380": 23734,
  "381": 36626,
  "382": 36243,
  "383": 34741,
  "384": 22842,
  "385": 27203,
  "386": 21734,
  "387": 32220,
  "388": 30460,
  "389": 29769,
  "39": 2670,
  "390": 25964,
  "391": 37710,
  "392": 32321,
  "393": 26007,
  "394": 34626,
  "395": 31010,
  "396": 34107,
  "397": 33372,
  "398": 31952,
  "399": 28771,
  "4": 19,
  "40": 1821,
  "400": 7029,
  "4000": 27559,
  "401": 21844,
  "402": 32531,
  "403": 31552,
  "404": 26429,
  "405": 26598,
  "406": 29703,
  "407": 30120,
  "408": 26200,
  "409": 29416,
  "41": 3901,
  "410": 33289,
  "411": 42224,
  "412": 39226,
  "413": 44103,
  "414": 37309,
  "415": 35038,
  "416": 35218,
  "417": 38547,
  "418": 39667,
  "419": 45068,
  "42": 3682,
  "420": 27211,
  "421": 46636,
  "422": 44361,
  "423": 43356,
  "424": 40090,
  "425": 32114,
  "426": 42780,
  "427": 42363,
  "428": 40173,
  "429": 11785,
  "43": 3559,
  "430": 31794,
  "431": 50080,
  "432": 45331,
  "433": 42117,
  "434": 47101,
  "435": 40064,
  "436": 43690,
  "437": 43284,
  "438": 43704,
  "439": 47106,
  "44": 2598,
  "440": 25644,
  "441": 39710,
  "442": 39506,
  "443": 34938,
  "444": 30272,
  "445": 43489,
  "446": 27260,
  "447": 34825,
  "448": 31115,
  "449": 31911,
  "45": 2231,
  "450": 17885,
  "451": 36330,
  "452": 37730,
  "453": 36625,
  "454": 34229,
  "455": 30505,
  "456": 29228,
  "457": 33032,
  "458": 29334,
  "459": 33459,
  "46": 3510,
  "460": 34716,
  "461": 40652,
  "462": 39997,
  "463": 38380,
  "464": 44578,
  "465": 42018,
  "466": 42199,
  "467": 24669,
  "468": 38472,
  "469": 42947,
  "47": 2857,
  "470": 27790,
  "471": 38339,
  "472": 37856,
  "473": 37804,
  "474": 38652,
  "475": 32576,
  "476": 35435,
  "477": 32883,
  "478": 29059,
  "479": 31714,
  "48": 2780,
  "480": 22148,
  "481": 40271,
  "482": 40149,
  "483": 38783,
  "484": 34137,
  "485": 32642,
  "486": 34251,
  "487": 35133,
  "488": 33646,
  "489": 35890,
  "49": 2920,
  "490": 31503,
  "491": 41289,
  "492": 40256,
  "493": 43134,
  "494": 39449,
  "495": 33781,
  "496": 37747,
  "497": 38073,
  "498": 36260,
  "499": 28324,
  "5": 20,
  "50": 1120,
  "500": 4059,
  "5000": 27641,
  "501": 33548,
  "502": 35126,
  "503": 31938,
  "504": 33580,
  "505": 31654,
  "506": 35638,
  "507": 35378,
  "508": 33042,
  "509": 29022,
  "51": 4349,
  "510": 33690,
  "511": 41647,
  "512": 25836,
  "513": 48645,
  "514": 47396,
  "515": 45969,
  "516": 47493,
  "517": 48170,
  "518": 44085,
  "519": 47785,
  "52": 4309,
  "520": 31211,
  "522": 49542,
  "523": 49803,
  "524": 48057,
  "525": 39088,
  "526": 48531,
  "528": 49351,
  "529": 49721,
  "53": 4310,
  "530": 38612,
  "533": 44994,
  "535": 44465,
  "536": 44468,
  "537": 46096,
  "538": 49561,
  "54": 4051,
  "540": 35005,
  "544": 47576,
  "545": 45326,
  "546": 49489,
  "548": 49934,
  "549": 44966,
  "55": 2816,
  "550": 22730,
  "551": 43697,
  "552": 40427,
  "553": 48096,
  "554": 44218,
  "555": 31046,
  "556": 37864,
  "557": 41948,
  "558": 40486,
  "559": 38605,
  "56": 3980,
  "560": 34135,
  "561": 47915,
  "562": 43918,
  "563": 46572,
  "565": 47372,
  "568": 49211,
  "57": 3553,
  "570": 39254,
  "571": 42875,
  "572": 48724,
  "573": 48638,
  "574": 46900,
  "575": 36189,
  "576": 37452,
  "577": 49447,
  "578": 38907,
  "579": 41734,
  "58": 3365,
  "580": 39322,
  "581": 48630,
  "582": 46044,
  "583": 46239,
  "584": 46352,
  "585": 38905,
  "586": 29796,
  "587": 44617,
  "588": 39118,
  "589": 44169,
  "59": 3270,
  "590": 36993,
  "591": 48952,
  "592": 45839,
  "593": 49051,
  "594": 46438,
  "595": 35124,
  "596": 45734,
  "597": 43239,
  "598": 41292,
  "599": 43452,
  "6": 21,
  "60": 1899,
  "600": 8054,
  "6000": 43434,
  "601": 41706,
  "602": 31418,
  "603": 35642,
  "604": 31916,
  "605": 32417,
  "606": 33206,
  "607": 31980,
  "608": 28688,
  "609": 31751,
  "61": 5333,
  "610": 39132,
  "612": 43610,
  "613": 47512,
  "614": 46841,
  "615": 47007,
  "616": 44214,
  "617": 47941,
  "618": 47448,
  "62": 5237,
  "620": 38850,
  "623": 46872,
  "625": 26704,
  "626": 45191,
  "627": 49856,
  "628": 48200,
  "629": 48602,
  "63": 5066,
  "630": 30005,
  "635": 48250,
  "64": 2414,
  "640": 31102,
  "641": 42759,
  "642": 41290,
  "643": 41813,
  "644": 29173,
  "645": 49259,
  "646": 27720,
  "647": 33981,
  "648": 34287,
  "649": 33300,
  "65": 2996,
  "650": 17544,
  "651": 40639,
  "652": 43193,
  "653": 46435,
  "654": 39111,
  "655": 35916,
  "656": 37466,
  "657": 37680,
  "658": 38431,
  "659": 36445,
  "66": 2791,
  "660": 39885,
  "661": 47159,
  "662": 39380,
  "663": 45791,
  "665": 36879,
  "666": 27310,
  "6666": 19060,
  "66666666": 41977,
  "667": 28933,
  "668": 35809,
  "669": 36657,
  "67": 3134,
  "670": 43798,
  "671": 46250,
  "672": 43864,
  "673": 45758,
  "674": 45385,
  "675": 42444,
  "676": 42548,
  "677": 40179,
  "678": 30924,
  "679": 37601,
  "68": 3104,
  "680": 37397,
  "681": 48564,
  "682": 43950,
  "683": 47521,
  "684": 41580,
  "685": 35978,
  "686": 33808,
  "687": 39925,
  "688": 34427,
  "689": 40523,
  "69": 3388,
  "690": 35844,
  "691": 49541,
  "692": 46589,
  "693": 48528,
  "694": 45214,
  "695": 37381,
  "696": 38205,
  "697": 40035,
  "698": 39357,
  "699": 47325,
  "7": 22,
  "70": 2154,
  "700": 9879,
  "701": 41583,
  "702": 36680,
  "703": 36809,
  "704": 32869,
  "705": 34801,
  "706": 35402,
  "707": 24038,
  "70710": 42877,
  "708": 32583,
  "709": 31495,
  "71": 4869,
  "710": 43147,
  "712": 49517,
  "713": 50055,
  "714": 45722,
  "718": 45720,
  "72": 4761,
  "720": 23906,
  "725": 45151,
  "727": 47760,
  "728": 48524,
  "729": 48555,
  "73": 4790,
  "730": 43916,
  "733": 49995,
  "736": 49150,
  "74": 4524,
  "740": 45598,
  "745": 50150,
  "747": 48882,
  "748": 48246,
  "75": 2425,
  "750": 15426,
  "751": 48365,
  "752": 43665,
  "753": 44550,
  "754": 41874,
  "755": 38172,
  "756": 38219,
  "757": 39251,
  "758": 38569,
  "759": 38314,
  "76": 4304,
  "760": 40761,
  "7601": 42752,
  "762": 48194,
  "763": 49641,
  "765": 29143,
  "76561": 48527,
  "767": 32059,
  "768": 30610,
  "77": 3324,
  "770": 41820,
  "771": 46761,
  "772": 43571,
  "773": 46871,
  "774": 47582,
  "775": 34483,
  "776": 39509,
  "777": 29331,
  "778": 39761,
  "779": 40393,
  "78": 3695,
  "780": 40873,
  "781": 49703,
  "782": 46519,
  "783": 50165,
  "784": 37688,
  "785": 41172,
  "786": 46302,
  "787": 41019,
  "789": 40401,
  "79": 3720,
  "790": 37750,
  "792": 48156,
  "793": 44750,
  "794": 50242,
  "795": 41544,
  "796": 41060,
  "797": 44673,
  "798": 43240,
  "799": 45455,
  "8": 23,
  "80": 1795,
  "800": 7410,
  "8000": 33942,
  "801": 41531,
  "802": 30863,
  "803": 43564,
  "804": 36088,
  "805": 28256,
  "806": 37988,
  "807": 36928,
  "808": 28362,
  "809": 34583,
  "81": 6659,
  "810": 40215,
  "815": 49503,
  "82": 6469,
  "820": 41739,
  "825": 47338,
  "83": 5999,
  "830": 48341,
  "833": 48634,
  "84": 5705,
  "840": 40675,
  "85": 5332,
  "850": 25764,
  "855": 45432,
  "86": 4521,
  "860": 45039,
  "864": 39570,
  "866": 42240,
  "87": 5774,
  "870": 46951,
  "875": 31360,
  "877": 42802,
  "88": 3459,
  "880": 41655,
  "882": 42980,
  "883": 49287,
  "884": 40353,
  "885": 44230,
  "886": 44980,
  "887": 46660,
  "888": 28011,
  "889": 39121,
  "89": 4531,
  "893": 49682,
  "896": 48712,
  "899": 44093,
  "9": 24,
  "90": 3829,
  "900": 12865,
  "901": 46815,
  "905": 44928,
  "909": 44675,
  "91": 6420,
  "910": 43234,
  "911": 35549,
  "915": 40248,
  "916": 48894,
  "92": 5892,
  "920": 37128,
  "925": 46351,
  "93": 6052,
  "930": 45418,
  "94": 5824,
  "940": 46899,
  "949": 48581,
  "95": 3865,
  "950": 31027,
  "951": 50119,
  "952": 49234,
  "953": 49649,
  "954": 48372,
  "956": 50148,
  "96": 4846,
  "960": 39277,
  "968": 38956,
  "969": 38819,
  "97": 5607,
  "970": 43587,
  "975": 42716,
  "978": 32196,
  "98": 4089,
  "980": 40022,
  "985": 42250,
  "986": 49087,
  "987": 44183,
  "989": 42520,
  "99": 2079,
  "990": 34155,
  "992": 41561,
  "993": 44821,
  "994": 42691,
  "995": 33438,
  "996": 38565,
  "997": 39647,
  "998": 34808,
  "999": 17032,
  "9999": 24214,
  ":": 25,
  ":\"": 11097,
  ":#": 43922,
  ":'": 32105,
  ":(": 37498,
  ":,": 45299,
  ":-": 21912,
  ":/": 14079,
  "://": 1378,
  "::": 3712,
  "::::": 24022,
  "::::::::": 43661,
  ":[": 33250,
  ":\\": 7479,
  ":]": 47715,
  ":{": 29164,
  ";": 26,
  ";\"": 26033,
  ";;": 7665,
  ";;;;": 14223,
  ";;;;;;;;": 25887,
  ";;;;;;;;;;;;": 46939,
  ";}": 46956,
  "<": 27,
  "</": 3556,
  "<<": 16791,
  "<?": 47934,
  "<|endoftext|>": 50256,
  "=": 28,
  "=\"": 2625,
  "=\"\"": 33151,
  "=\"#": 25698,
  "=\"/": 35922,
  "=#": 46249,
  "=$": 43641,
  "='": 11639,
  "=(": 16193,
  "=-": 10779,
  "=-=-": 16822,
  "=-=-=-=-": 27584,
  "=-=-=-=-=-=-=-=-": 46402,
  "=/": 33223,
  "==": 855,
  "===": 18604,
  "====": 1421,
  "======": 50155,
  "========": 2559,
  "============": 25609,
  "================": 4770,
  "================================": 10052,
  "================================================================": 23926,
  "=>": 14804,
  "=[": 41888,
  "=\\\"": 17553,
  "=]": 48874,
  "={": 34758,
  "=~": 31820,
  "=~=~": 33813,
  ">": 29,
  ">\"": 24618,
  ">(": 33994,
  ">)": 43734,
  ">,": 22330,
  ">.": 28401,
  ">:": 31175,
  "><": 6927,
  "></": 12240,
  ">>": 4211,
  ">>>": 33409,
  ">>>>": 16471,
  ">>>>>>>>": 33717,
  ">>\\": 34516,
  ">[": 36937,
  ">]": 37981,
  "?": 30,
  "?!": 12248,
  "?!\"": 30823,
  "?\"": 1701,
  "?\",": 35379,
  "?\".": 43634,
  "?'": 8348,
  "?'\"": 26989,
  "?)": 10091,
  "?),": 33924,
  "?).": 29865,
  "?,": 21747,
  "?:": 27514,
  "??": 3548,
  "???": 28358,
  "????": 9805,
  "?????": 19622,
  "?????-": 25658,
  "?????-?????-": 31666,
  "????????": 35709,
  "?]": 26398,
  "?ãĢį": 42943,
  "@": 31,
  "@#": 41573,
  "@#&": 48193,
  "@@": 12404,
  "@@@@": 22675,
  "@@@@@@@@": 37991,
  "A": 32,
  "AA": 3838,
  "AAA": 29697,
  "AAAA": 17922,
  "AAAAAAAA": 43488,
  "AAF": 38540,
  "AB": 6242,
  "ABC": 24694,
  "ABLE": 17534,
  "AC": 2246,
  "ACA": 26576,
  "ACC": 26861,
  "ACE": 11598,
  "ACH": 16219,
  "ACK": 8120,
  "ACP": 33056,
  "ACT": 10659,
  "ACTED": 38542,
  "ACTION": 44710,
  "ACY": 43300,
  "AD": 2885,
  "ADA": 26853,
  "ADD": 29266,
  "ADE": 19266,
  "ADRA": 40517,
  "ADS": 47149,
  "ADVERTISEMENT": 19053,
  "AE": 14242,
  "AF": 8579,
  "AFP": 17449,
  "AFTA": 32106,
  "AG": 4760,
  "AGE": 11879,
  "AGES": 25552,
  "AH": 18429,
  "AI": 20185,
  "AIDS": 39338,
  "AIN": 29833,
  "AIR": 42149,
  "AK": 10206,
  "AKING": 43602,
  "AL": 1847,
  "ALD": 44071,
  "ALE": 21358,
  "ALK": 28082,
  "ALL": 7036,
  "ALLY": 19807,
  "ALS": 23333,
  "ALSE": 23719,
  "ALT": 31429,
  "ALTH": 40818,
  "AM": 2390,
  "AMA": 25087,
  "AMD": 28075,
  "AME": 10067,
  "AMES": 29559,
  "AMI": 43870,
  "AMP": 23518,
  "AMS": 40834,
  "AMY": 29428,
  "AN": 1565,
  "ANA": 31574,
  "ANC": 20940,
  "ANCE": 19240,
  "AND": 6981,
  "ANE": 30525,
  "ANG": 15567,
  "ANGE": 27746,
  "ANI": 43664,
  "ANK": 15154,
  "ANN": 22846,
  "ANS": 15037,
  "ANT": 8643,
  "ANY": 31827,
  "AP": 2969,
  "APD": 35349,
  "APE": 45721,
  "APH": 31300,
  "API": 17614,
  "APP": 24805,
  "APS": 44580,
  "APTER": 29485,
  "AR": 1503,
  "ARA": 24401,
  "ARB": 37304,
  "ARC": 25793,
  "ARCH": 31315,
  "ARD": 9795,
  "ARDIS": 49608,
  "ARDS": 48294,
  "ARE": 12203,
  "ARGET": 46095,
  "ARI": 33604,
  "ARK": 14175,
  "ARM": 33456,
  "ARP": 36035,
  "ARR": 26465,
  "ARS": 27415,
  "ART": 7227,
  "ARY": 13153,
  "AS": 1921,
  "ASC": 42643,
  "ASE": 11159,
  "ASED": 42827,
  "ASH": 11211,
  "ASHINGTON": 19436,
  "ASON": 36033,
  "ASS": 10705,
  "AST": 11262,
  "ASY": 26483,
  "AT": 1404,
  "ATA": 13563,
  "ATCH": 11417,
  "ATE": 6158,
  "ATED": 11617,
  "ATER": 23261,
  "ATES": 29462,
  "ATH": 12599,
  "ATHER": 45226,
  "ATING": 33881,
  "ATION": 6234,
  "ATIONAL": 29912,
  "ATIONS": 18421,
  "ATIVE": 37045,
  "ATOR": 25633,
  "ATS": 33586,
  "ATT": 17139,
  "ATTLE": 35455,
  "ATURE": 40086,
  "ATURES": 47471,
  "AU": 26830,
  "AUD": 48877,
  "AUT": 39371,
  "AV": 10116,
  "AW": 12298,
  "AX": 25922,
  "AY": 4792,
  "AZ": 22778,
  "Aaron": 34451,
  "Ab": 4826,
  "Ability": 22453,
  "About": 8585,
  "Above": 32397,
  "Abs": 24849,
  "Absolutely": 40501,
  "Abstract": 23839,
  "Abyss": 49073,
  "Ac": 12832,
  "Acc": 17320,
  "Accept": 38855,
  "Access": 15457,
  "Accessory": 41629,
  "According": 4821,
  "Account": 30116,
  "Acknowled": 39482,
  "Across": 40553,
  "Act": 6398,
  "Action": 12502,
  "ActionCode": 31573,
  "Activ": 25526,
  "Active": 13739,
  "Activity": 16516,
  "Actor": 40277,
  "Actually": 26417,
  "Ad": 2782,
  "Adam": 23159,
  "Adams": 47462,
  "Adapt": 48003,
  "Adapter": 47307,
  "Add": 4550,
  "Added": 13003,
  "Adding": 32901,
  "Additional": 17699,
  "Additionally": 23216,
  "Address": 20231,
  "Adds": 46245,
  "Adjust": 39668,
  "Admin": 46787,
  "Administ": 41862,
  "Adult": 42995,
  "Adv": 22856,
  "Advanced": 28809,
  "Adventure": 48289,
  "Advertisement": 4723,
  "Advertisements": 14592,
  "Af": 17584,
  "Afee": 44314,
  "Aff": 35191,
  "African": 43032,
  "After": 3260,
  "Ag": 10262,
  "Again": 15316,
  "Against": 39276,
  "Age": 23396,
  "Agent": 36772,
  "Agg": 46384,
  "Ah": 10910,
  "Aid": 44245,
  "Aim": 49945,
  "Air": 16170,
  "Ak": 33901,
  "Al": 2348,
  "Alabama": 49177,
  "Alan": 36235,
  "Albert": 42590,
  "Ale": 37474,
  "Alert": 36420,
  "Alex": 15309,
  "Alexander": 38708,
  "Ali": 37893,
  "Alias": 40489,
  "Alice": 44484,
  "Alien": 44501,
  "All": 3237,
  "Allah": 48620,
  "Allen": 39989,
  "Allow": 35265,
  "Allows": 34934,
  "Almost": 23379,
  "Along": 24035,
  "Alpha": 38077,
  "Already": 37447,
  "Alright": 31442,
  "Also": 7583,
  "Alt": 29161,
  "Altern": 23081,
  "Alternative": 49788,
  "Alternatively": 44163,
  "Although": 7003,
  "Always": 30374,
  "Am": 5840,
  "Amazing": 42770,
  "Amazon": 24888,
  "Amb": 35649,
  "Americ": 5477,
  "America": 18165,
  "American": 7437,
  "Americans": 17636,
  "Amid": 43541,
  "Among": 14311,
  "Amount": 31264,
  "Amy": 40797,
  "An": 2025,
  "Analy": 37702,
  "Analysis": 32750,
  "Ancient": 44974,
  "And": 1870,
  "Anderson": 42991,
  "Andre": 31258,
  "Andrew": 20508,
  "Android": 25934,
  "Andy": 35314,
  "Ang": 13450,
  "Angel": 33246,
  "Angelo": 45585,
  "Anim": 35320,
  "Animal": 40002,
  "Animation": 39520,
  "Ann": 18858,
  "Anna": 31160,
  "Anne": 43227,
  "Anonymous": 20660,
  "Another": 6610,
  "Answer": 33706,
  "Ant": 13217,
  "Anth": 30327,
  "Anthony": 32697,
  "Anti": 28795,
  "Any": 7149,
  "Anyone": 21129,
  "Anything": 40028,
  "Anyway": 23795,
  "Ap": 25189,
  "Apart": 39182,
  "App": 4677,
  "AppData": 22322,
  "Apparently": 30402,
  "Appearance": 48231,
  "Appearances": 47569,
  "Apple": 16108,
  "Applic": 33583,
  "Application": 23416,
  "Applications": 41995,
  "Apply": 44836,
  "Apps": 48433,
  "Apr": 13680,
  "April": 16784,
  "Ar": 3163,
  "Arab": 31602,
  "Arc": 24021,
  "Arcade": 43763,
  "Arch": 19895,
  "Are": 8491,
  "Area": 30547,
  "Aren": 43199,
  "Arg": 28100,
  "Args": 42035,
  "Ari": 26529,
  "Arizona": 40732,
  "Ark": 42007,
  "Arm": 26560,
  "Armor": 31512,
  "Army": 45272,
  "Around": 24472,
  "Array": 19182,
  "Arsenal": 46230,
  "Art": 8001,
  "Arthur": 29874,
  "Article": 14906,
  "Artist": 43020,
  "As": 1722,
  "Ash": 26754,
  "Asia": 38555,
  "Asian": 43224,
  "Aside": 32602,
  "Ask": 25214,
  "Asked": 18932,
  "Ass": 8021,
  "Assad": 23622,
  "Assembly": 49670,
  "Asset": 45869,
  "Assistant": 48902,
  "Associated": 29014,
  "Assuming": 48142,
  "Ast": 33751,
  "Async": 42367,
  "At": 2953,
  "Atl": 25255,
  "Atlanta": 43482,
  "Atlantic": 41120,
  "Att": 8086,
  "Attach": 33296,
  "Attack": 27732,
  "Attempt": 37177,
  "Attempts": 48452,
  "Attorney": 46319,
  "Attribute": 33682,
  "Attributes": 29021,
  "Aud": 16353,
  "Audio": 21206,
  "Aug": 12512,
  "August": 17908,
  "Aust": 15160,
  "Austin": 40245,
  "Austral": 19763,
  "Australia": 27429,
  "Australian": 38036,
  "Aut": 16541,
  "Auth": 30515,
  "Authent": 47649,
  "Author": 13838,
  "Authorities": 28705,
  "Auto": 27722,
  "Autom": 38062,
  "Av": 7355,
  "Availability": 29841,
  "Available": 10493,
  "Average": 26287,
  "Avg": 48997,
  "Avoid": 38618,
  "Aw": 23155,
  "Awesome": 49061,
  "Ax": 31554,
  "Ay": 42012,
  "Az": 26903,
  "B": 33,
  "BA": 4339,
  "BACK": 31098,
  "BALL": 45463,
  "BAT": 47379,
  "BB": 15199,
  "BBC": 33833,
  "BC": 2749,
  "BD": 14529,
  "BE": 12473,
  "BER": 13246,
  "BF": 29499,
  "BG": 40469,
  "BI": 3483,
  "BIL": 19676,
  "BILITIES": 49516,
  "BILITY": 25382,
  "BILL": 39888,
  "BIP": 47772,
  "BIT": 26094,
  "BL": 9148,
  "BLE": 19146,
  "BLIC": 32936,
  "BM": 12261,
  "BN": 15766,
  "BO": 8202,
  "BOOK": 39453,
  "BOX": 39758,
  "BP": 20866,
  "BR": 11473,
  "BRE": 40438,
  "BS": 4462,
  "BSD": 21800,
  "BT": 19313,
  "BTC": 35964,
  "BU": 19499,
  "BUG": 12953,
  "BUR": 38926,
  "BUS": 45346,
  "BUT": 47526,
  "BW": 48802,
  "BY": 17513,
  "Ba": 34458,
  "Baby": 36534,
  "Back": 7282,
  "Background": 21756,
  "Bad": 22069,
  "Bah": 47514,
  "Bal": 24597,
  "Balance": 45866,
  "Ball": 23410,
  "Balt": 41312,
  "Baltimore": 46139,
  "Ban": 30457,
  "Band": 31407,
  "Bang": 43984,
  "Bank": 28650,
  "Bar": 10374,
  "Barn": 47359,
  "Bas": 15522,
  "Base": 14881,
  "Based": 15001,
  "Basic": 26416,
  "Basically": 31524,
  "Bat": 24541,
  "Batman": 37039,
  "Battery": 47006,
  "Battle": 24064,
  "Bay": 15262,
  "Be": 3856,
  "Bear": 36352,
  "Beast": 41490,
  "Beat": 34979,
  "Beaut": 38413,
  "Bec": 39649,
  "Because": 8128,
  "Beck": 43454,
  "Bed": 45896,
  "Bee": 49512,
  "Beer": 49802,
  "Before": 8421,
  "Beg": 24586,
  "Begin": 44140,
  "Beginning": 45198,
  "Beh": 25267,
  "Behind": 34163,
  "Being": 18357,
  "Bel": 12193,
  "Bell": 36488,
  "Below": 21106,
  "Ben": 11696,
  "Bench": 44199,
  "Benef": 42166,
  "Benz": 42484,
  "Ber": 24814,
  "Bern": 23927,
  "Bernie": 33433,
  "Berry": 25215,
  "Besides": 23937,
  "Best": 13014,
  "Bet": 13056,
  "Beta": 43303,
  "Better": 28971,
  "Between": 25262,
  "Bey": 21993,
  "Beyond": 24102,
  "Bi": 23286,
  "Big": 12804,
  "Bill": 17798,
  "Billy": 49640,
  "Bind": 36180,
  "Bio": 42787,
  "Bir": 50091,
  "Bird": 42562,
  "Birth": 38480,
  "Bit": 13128,
  "Bitcoin": 22614,
  "Bl": 3629,
  "Black": 9915,
  "Blade": 47520,
  "Blake": 37849,
  "Ble": 43413,
  "Block": 12235,
  "Blocks": 45356,
  "Blog": 42383,
  "Blood": 21659,
  "Bloom": 38941,
  "Bloomberg": 47696,
  "Blu": 38676,
  "Blue": 14573,
  "Bo": 16635,
  "Board": 29828,
  "Bob": 18861,
  "Body": 25842,
  "Bomb": 48478,
  "Bon": 20682,
  "Bone": 49580,
  "Bonus": 29435,
  "Boo": 46120,
  "Book": 10482,
  "Books": 30650,
  "Boost": 45686,
  "Boot": 36476,
  "Border": 34189,
  "Born": 28524,
  "Boss": 37310,
  "Boston": 31710,
  "Bot": 20630,
  "Both": 10265,
  "Bott": 28653,
  "Bottom": 34104,
  "Bound": 49646,
  "Bow": 39961,
  "Box": 14253,
  "Boy": 26554,
  "Br": 9414,
  "Bra": 42333,
  "Brad": 30805,
  "Brain": 44687,
  "Brand": 38416,
  "Brandon": 45467,
  "Brave": 39787,
  "Brazil": 39190,
  "Bre": 12679,
  "Break": 31737,
  "Breaking": 29449,
  "Brend": 48015,
  "Brew": 44029,
  "Brexit": 40730,
  "Brian": 24761,
  "Bride": 47148,
  "Bridge": 37385,
  "Brien": 20118,
  "Bright": 41267,
  "Bring": 31416,
  "Brit": 17959,
  "Britain": 37114,
  "British": 25631,
  "Bro": 15783,
  "Broad": 30507,
  "Bron": 18760,
  "Brook": 45534,
  "Brother": 39461,
  "Brow": 32635,
  "Brown": 20644,
  "Browser": 46532,
  "Bruce": 38509,
  "Bs": 37000,
  "Bu": 38374,
  "Buff": 36474,
  "Buffer": 28632,
  "Bug": 25624,
  "Build": 15580,
  "Builder": 32875,
  "Building": 25954,
  "Built": 39582,
  "Bul": 33481,
  "Bull": 39549,
  "Bur": 22991,
  "Burn": 29053,
  "Bus": 16286,
  "Bush": 36113,
  "Business": 24749,
  "But": 1537,
  "Button": 21864,
  "Buy": 14518,
  "Buyable": 39693,
  "BuyableInstoreAndOnline": 40242,
  "Buzz": 48230,
  "By": 3886,
  "ById": 48364,
  "Byte": 40778,
  "Bytes": 45992,
  "C": 34,
  "CA": 8141,
  "CAN": 44565,
  "CAP": 33177,
  "CAR": 20034,
  "CAST": 44647,
  "CB": 23199,
  "CBC": 29208,
  "CBS": 22923,
  "CC": 4093,
  "CCC": 46361,
  "CD": 8610,
  "CDC": 47667,
  "CE": 5222,
  "CENT": 43960,
  "CEO": 46691,
  "CEPT": 42006,
  "CF": 22495,
  "CG": 39816,
  "CH": 3398,
  "CHA": 49285,
  "CHAPTER": 41481,
  "CHAR": 38019,
  "CHAT": 31542,
  "CHECK": 50084,
  "CHO": 44899,
  "CHQ": 47831,
  "CHR": 37846,
  "CI": 25690,
  "CIA": 49732,
  "CL": 5097,
  "CLA": 16827,
  "CLAIM": 48778,
  "CLASS": 31631,
  "CLASSIFIED": 45449,
  "CLE": 29931,
  "CLOSE": 32737,
  "CLUD": 39149,
  "CLUS": 28332,
  "CM": 24187,
  "CN": 44175,
  "CNN": 18474,
  "CO": 8220,
  "COL": 25154,
  "COLOR": 46786,
  "COM": 9858,
  "COMPLE": 41335,
  "CON": 10943,
  "CONCLUS": 47542,
  "CONT": 37815,
  "COR": 44879,
  "CP": 8697,
  "CPU": 36037,
  "CR": 9419,
  "CRE": 43387,
  "CRIP": 36584,
  "CRIPTION": 40165,
  "CS": 7902,
  "CSS": 49155,
  "CT": 4177,
  "CTV": 30428,
  "CU": 43633,
  "CV": 33538,
  "CVE": 31436,
  "CW": 43538,
  "Ca": 24334,
  "Cache": 30562,
  "Cal": 9771,
  "Calif": 19619,
  "California": 25284,
  "Call": 14134,
  "Callback": 47258,
  "Calling": 48593,
  "Cam": 21701,
  "Camera": 35632,
  "Camp": 21111,
  "Campaign": 46102,
  "Can": 6090,
  "Canada": 17940,
  "Canadian": 28203,
  "Cand": 41572,
  "Cap": 15610,
  "Capital": 39315,
  "Capt": 19209,
  "Captain": 27898,
  "Capture": 49630,
  "Car": 9914,
  "Card": 16962,
  "Care": 17784,
  "Carl": 26886,
  "Cart": 43476,
  "Carter": 49958,
  "Cas": 35155,
  "Case": 20448,
  "Cash": 35361,
  "Cass": 43529,
  "Cast": 19248,
  "Cat": 21979,
  "Catal": 39075,
  "Catalog": 49015,
  "Category": 27313,
  "Cath": 39581,
  "Catholic": 48919,
  "Cause": 42323,
  "Cele": 42741,
  "Cell": 28780,
  "Cent": 19085,
  "Center": 23656,
  "Central": 30645,
  "Cert": 37608,
  "Certain": 26469,
  "Certainly": 36001,
  "Ch": 1925,
  "Chain": 35491,
  "Chair": 43189,
  "Chall": 41812,
  "Champ": 48507,
  "Chan": 48407,
  "Chance": 43606,
  "Change": 19400,
  "Changed": 31813,
  "Changes": 29238,
  "Changing": 48333,
  "Channel": 29239,
  "Chapter": 14126,
  "Char": 12441,
  "Character": 27275,
  "Characters": 48393,
  "Charg": 28316,
  "Charge": 50044,
  "Charges": 36970,
  "Charl": 24453,
  "Charles": 28711,
  "Charlie": 37136,
  "Chart": 45488,
  "Chat": 30820,
  "Che": 7376,
  "Check": 9787,
  "Chel": 38292,
  "Chelsea": 41053,
  "Chem": 41829,
  "Chest": 45170,
  "Chicago": 25705,
  "Chicken": 45565,
  "Chief": 23675,
  "Child": 16424,
  "Children": 26829,
  "China": 14581,
  "Chinese": 23604,
  "Chip": 49985,
  "Cho": 22164,
  "Choice": 46770,
  "Choose": 31851,
  "Chris": 15645,
  "Christ": 10684,
  "Christian": 20298,
  "Christmas": 44614,
  "Christopher": 38025,
  "Chuck": 44324,
  "Church": 46686,
  "Circ": 31560,
  "City": 14941,
  "Civil": 32610,
  "Cl": 2601,
  "Cla": 47404,
  "Claim": 44819,
  "Clar": 48035,
  "Clark": 43250,
  "Class": 9487,
  "Classic": 39914,
  "Cle": 34349,
  "Clean": 32657,
  "Clear": 19856,
  "Clearly": 30638,
  "Click": 8164,
  "Client": 11792,
  "Climate": 37649,
  "Clinton": 16549,
  "Clock": 44758,
  "Close": 26125,
  "Closure": 45398,
  "Cloud": 18839,
  "Club": 42350,
  "Cmd": 40109,
  "Co": 7222,
  "Coach": 40677,
  "Cod": 43806,
  "Code": 10669,
  "Coin": 24387,
  "Col": 5216,
  "Cola": 28635,
  "Cold": 34312,
  "Cole": 46509,
  "Coll": 22667,
  "Collect": 31337,
  "Collection": 36307,
  "College": 38951,
  "Collins": 49645,
  "Color": 10258,
  "Colorado": 41330,
  "Columb": 36063,
  "Column": 39470,
  "Com": 5377,
  "Comb": 20575,
  "Combat": 38667,
  "Come": 16773,
  "Coming": 30804,
  "Comm": 6935,
  "Command": 21575,
  "Comment": 21357,
  "Comments": 23903,
  "Commerce": 47662,
  "Commercial": 48401,
  "Commission": 50246,
  "Common": 17227,
  "Commun": 30813,
  "Community": 20012,
  "Comp": 7293,
  "Compan": 41309,
  "Companies": 49111,
  "Company": 39154,
  "Compar": 50249,
  "Compare": 41488,
  "Compared": 44669,
  "Compat": 40073,
  "Compl": 38143,
  "Complete": 20988,
  "Completed": 43768,
  "Component": 21950,
  "Computer": 34556,
  "Con": 3103,
  "Conclusion": 21481,
  "Cond": 25559,
  "Condition": 48362,
  "Conf": 18546,
  "Config": 16934,
  "Configuration": 38149,
  "Cong": 18649,
  "Congratulations": 45048,
  "Congress": 25916,
  "Conn": 37321,
  "Connect": 13313,
  "Connection": 32048,
  "Connector": 34525,
  "Connell": 15559,
  "Connor": 27136,
  "Cons": 9444,
  "Conservative": 42039,
  "Consider": 19626,
  "Considering": 40475,
  "Console": 47581,
  "Const": 34184,
  "Construct": 42316,
  "Constructed": 25207,
  "Construction": 36687,
  "Consumer": 49106,
  "Cont": 4264,
  "Contact": 17829,
  "Container": 29869,
  "Content": 19746,
  "Contents": 15842,
  "Context": 21947,
  "Contin": 17875,
  "Continue": 29453,
  "Contract": 45845,
  "Contribut": 37146,
  "Control": 15988,
  "Controller": 22130,
  "Cook": 28937,
  "Cool": 34530,
  "Cooldown": 45953,
  "Cop": 13379,
  "Copy": 29881,
  "Copyright": 15269,
  "Cor": 10606,
  "Core": 14055,
  "Corn": 41389,
  "Corp": 45680,
  "Correct": 42779,
  "Correction": 43267,
  "Cos": 36734,
  "Cost": 13729,
  "Could": 23722,
  "Coun": 31053,
  "Council": 40940,
  "Count": 12332,
  "Counter": 31694,
  "Country": 33921,
  "Cour": 25877,
  "Course": 49046,
  "Court": 36699,
  "Courtesy": 31825,
  "Cover": 27245,
  "Cow": 40147,
  "Cr": 13916,
  "Cra": 33800,
  "Craft": 14467,
  "Craig": 40441,
  "Crash": 47598,
  "Cre": 12443,
  "Creat": 16719,
  "Create": 16447,
  "Created": 41972,
  "Creating": 32071,
  "Credit": 23690,
  "Credits": 42855,
  "Crew": 46724,
  "Crime": 45580,
  "Crit": 18559,
  "Critical": 41000,
  "Critics": 36623,
  "Cro": 35403,
  "Cross": 21544,
  "Cru": 27535,
  "Crunch": 49384,
  "Cruz": 41811,
  "Cry": 26677,
  "Crypt": 23919,
  "Crystal": 43752,
  "Cs": 32274,
  "Ct": 33707,
  "Ctrl": 40069,
  "Cu": 46141,
  "Cub": 43632,
  "Cube": 29071,
  "Cur": 26628,
  "Current": 11297,
  "Currently": 21327,
  "Custom": 15022,
  "Customer": 44939,
  "Cut": 26254,
  "Cy": 20418,
  "D": 35,
  "DA": 5631,
  "DAQ": 46640,
  "DATA": 26947,
  "DAY": 26442,
  "DB": 11012,
  "DC": 9697,
  "DCS": 49513,
  "DD": 16458,
  "DE": 7206,
  "DEBUG": 30531,
  "DEC": 41374,
  "DEF": 32988,
  "DEM": 39429,
  "DEN": 41819,
  "DEP": 46162,
  "DER": 14418,
  "DERR": 49643,
  "DES": 30910,
  "DEV": 39345,
  "DF": 8068,
  "DH": 41473,
  "DI": 17931,
  "DIR": 34720,
  "DIS": 26288,
  "DIT": 49828,
  "DIV": 33569,
  "DJ": 35028,
  "DK": 48510,
  "DL": 19260,
  "DM": 23127,
  "DN": 35504,
  "DNA": 28886,
  "DO": 18227,
  "DOC": 38715,
  "DOM": 39170,
  "DON": 41173,
  "DOS": 35178,
  "DOWN": 41925,
  "DP": 6322,
  "DR": 7707,
  "DS": 5258,
  "DT": 24544,
  "DVD": 39218,
  "DW": 42955,
  "DX": 36227,
  "Da": 26531,
  "Dad": 46270,
  "Daddy": 48280,
  "Daily": 28545,
  "Dallas": 40540,
  "Dam": 14550,
  "Damage": 22022,
  "Damn": 43343,
  "Dan": 21174,
  "Daniel": 19962,
  "Danny": 45478,
  "Dar": 32708,
  "Dark": 17367,
  "Dash": 43041,
  "Dat": 27354,
  "Data": 6601,
  "Database": 38105,
  "Date": 10430,
  "Dave": 27984,
  "David": 11006,
  "Davis": 36462,
  "Day": 12393,
  "Days": 38770,
  "Db": 43832,
  "De": 5005,
  "Dead": 20489,
  "Deal": 45776,
  "Dean": 36372,
  "Dear": 20266,
  "Death": 20148,
  "Deb": 16587,
  "Debug": 27509,
  "Dec": 10707,
  "December": 20588,
  "Decl": 37835,
  "Decre": 43198,
  "Deep": 29744,
  "Def": 7469,
  "Default": 19463,
  "Defense": 27300,
  "Definition": 36621,
  "Del": 13856,
  "Delete": 38727,
  "Delivery": 33129,
  "DeliveryDate": 39749,
  "Delta": 42430,
  "Dem": 11522,
  "Demand": 42782,
  "Democratic": 33939,
  "Democrats": 29969,
  "Demon": 35477,
  "Den": 21306,
  "Denver": 49818,
  "Dep": 12156,
  "Department": 36261,
  "Depending": 41156,
  "Deploy": 49322,
  "Depth": 48791,
  "Depths": 42382,
  "Der": 28532,
  "Des": 5960,
  "Desc": 24564,
  "Description": 11828,
  "Design": 23067,
  "Desk": 42523,
  "Desktop": 36881,
  "Despite": 8332,
  "Dest": 24159,
  "Destroy": 49174,
  "Det": 11242,
  "Detailed": 32080,
  "Details": 24259,
  "Detect": 47504,
  "Detroit": 40404,
  "Dev": 13603,
  "Develop": 19246,
  "Developer": 45351,
  "Development": 41206,
  "Device": 24728,
  "Dex": 48875,
  "Di": 18683,
  "Dial": 24400,
  "Dialog": 44204,
  "Dialogue": 41099,
  "Diamond": 47710,
  "Dick": 38743,
  "Did": 11633,
  "Die": 32423,
  "Diff": 28813,
  "Different": 40341,
  "Dig": 19511,
  "Digital": 27640,
  "Dim": 29271,
  "Dir": 35277,
  "Direct": 13470,
  "Director": 28702,
  "Directory": 43055,
  "Dis": 7279,
  "Disable": 48893,
  "Disc": 15642,
  "Disclaimer": 19618,
  "Discover": 44596,
  "Discuss": 48873,
  "Discussion": 34255,
  "Disk": 40961,
  "Disney": 37338,
  "Dispatch": 49354,
  "Display": 23114,
  "Dist": 20344,
  "Distance": 45767,
  "District": 44857,
  "Div": 24095,
  "Do": 5211,
  "DoS": 46498,
  "Doc": 23579,
  "Doctor": 37564,
  "Doctors": 47087,
  "Document": 24941,
  "Documents": 38354,
  "Does": 13921,
  "Dog": 32942,
  "Dom": 24510,
  "Domain": 43961,
  "Domin": 43417,
  "Don": 3987,
  "Donald": 7371,
  "DonaldTrump": 27674,
  "Done": 45677,
  "Donnell": 24853,
  "Dou": 40287,
  "Double": 25628,
  "Doug": 42297,
  "Down": 8048,
  "Download": 10002,
  "Downloadha": 41551,
  "Dr": 6187,
  "Draft": 37741,
  "Drag": 46022,
  "Dragon": 17808,
  "DragonMagazine": 42424,
  "Draw": 25302,
  "Dream": 30571,
  "Dri": 20564,
  "Drive": 24825,
  "Driver": 32103,
  "Dro": 35442,
  "Drop": 26932,
  "Drug": 37943,
  "Ds": 30832,
  "Du": 35660,
  "Dual": 36248,
  "Dub": 37590,
  "Due": 22229,
  "Dun": 30128,
  "Dur": 36927,
  "Duration": 26054,
  "During": 7191,
  "Dust": 43767,
  "Dutch": 49717,
  "Dynamic": 44090,
  "E": 36,
  "EA": 16412,
  "EAR": 17133,
  "EB": 30195,
  "EC": 2943,
  "ECA": 36600,
  "ECD": 27295,
  "ECH": 25994,
  "ECK": 25171,
  "ECT": 9782,
  "ECTION": 24565,
  "ED": 1961,
  "EDIT": 24706,
  "EE": 6500,
  "EED": 41841,
  "EEE": 31909,
  "EEEE": 35039,
  "EEK": 33823,
  "EEP": 35238,
  "EF": 25425,
  "EFF": 37267,
  "EG": 7156,
  "EGA": 33146,
  "EGIN": 43312,
  "EH": 42413,
  "EL": 3698,
  "ELD": 24639,
  "ELF": 37738,
  "ELL": 23304,
  "ELS": 37142,
  "ELY": 30943,
  "EM": 3620,
  "EMA": 27630,
  "EMBER": 28952,
  "EMENT": 12529,
  "EMOTE": 36862,
  "EMP": 39494,
  "EMS": 39201,
  "EN": 1677,
  "ENA": 45510,
  "ENC": 24181,
  "ENCE": 18310,
  "ENCY": 45155,
  "END": 10619,
  "ENDED": 49361,
  "ENE": 39267,
  "ENG": 26808,
  "ENGTH": 49494,
  "ENN": 34571,
  "ENS": 16938,
  "ENSE": 24290,
  "ENT": 3525,
  "ENTION": 45589,
  "ENTS": 15365,
  "EO": 4720,
  "EP": 8905,
  "EPA": 40906,
  "ER": 1137,
  "ERA": 46461,
  "ERAL": 27130,
  "ERC": 47691,
  "ERE": 9338,
  "ERG": 49837,
  "ERN": 28778,
  "ERO": 34812,
  "ERROR": 24908,
  "ERS": 4877,
  "ERSON": 29086,
  "ERT": 17395,
  "ERY": 19664,
  "ES": 1546,
  "ESA": 43279,
  "ESCO": 43311,
  "ESE": 33635,
  "ESH": 44011,
  "ESPN": 31730,
  "ESS": 7597,
  "ESSION": 47621,
  "EST": 6465,
  "EStream": 39906,
  "EStreamFrame": 43177,
  "ET": 2767,
  "ETA": 20892,
  "ETF": 22274,
  "ETH": 20702,
  "ETHOD": 36252,
  "ETS": 32716,
  "EU": 19684,
  "EV": 20114,
  "EVA": 27881,
  "EW": 6217,
  "EX": 6369,
  "EXP": 49864,
  "EXT": 13918,
  "EY": 22348,
  "Each": 10871,
  "Ear": 8419,
  "Earlier": 13689,
  "Early": 20457,
  "Earn": 49725,
  "Earth": 22840,
  "East": 25234,
  "Eastern": 46109,
  "Easy": 28406,
  "Eat": 47659,
  "Ec": 49136,
  "Econom": 28489,
  "Economic": 48307,
  "Ed": 7407,
  "Edge": 37021,
  "Edit": 18378,
  "Edited": 45882,
  "Editor": 17171,
  "Educ": 33380,
  "Education": 41183,
  "Edward": 43982,
  "Effect": 18610,
  "Effective": 44831,
  "Effects": 47738,
  "Egypt": 39299,
  "Eh": 43894,
  "Eight": 29571,
  "Either": 32478,
  "El": 9527,
  "Ele": 28827,
  "Elect": 19453,
  "Electric": 44132,
  "Element": 20180,
  "Elf": 46995,
  "Elizabeth": 43568,
  "Ell": 30639,
  "Els": 45507,
  "Elsa": 49050,
  "Else": 40674,
  "Elsewhere": 49374,
  "Em": 10161,
  "Email": 15333,
  "Emb": 31567,
  "Emer": 32779,
  "Emergency": 48979,
  "Emily": 48640,
  "Employ": 29733,
  "Empty": 40613,
  "En": 4834,
  "Enable": 36695,
  "Enabled": 20491,
  "Enc": 27195,
  "End": 12915,
  "Energy": 28925,
  "Eng": 7936,
  "Engine": 13798,
  "EngineDebug": 49781,
  "Engineers": 28620,
  "England": 39163,
  "English": 15823,
  "Enh": 35476,
  "Enhanced": 49026,
  "Enjoy": 27467,
  "Enlarge": 30952,
  "Enough": 47323,
  "Ent": 14539,
  "Enter": 17469,
  "Entity": 32398,
  "Entry": 30150,
  "Environment": 31441,
  "Environmental": 47213,
  "Ep": 13807,
  "Episode": 23758,
  "Equ": 23588,
  "Er": 9139,
  "Eric": 25004,
  "Error": 12331,
  "Es": 23041,
  "Esc": 47051,
  "Especially": 48464,
  "Ess": 29508,
  "Est": 22362,
  "Eth": 40226,
  "Euro": 14398,
  "Europe": 16112,
  "European": 22030,
  "Ev": 15200,
  "Eva": 44239,
  "Even": 6104,
  "Event": 9237,
  "Events": 37103,
  "Eventually": 28724,
  "Ever": 23921,
  "Every": 6109,
  "Everybody": 28172,
  "Everyone": 16190,
  "Everything": 19693,
  "Evidence": 46785,
  "Evil": 48477,
  "Ex": 3109,
  "Exactly": 47173,
  "Example": 16281,
  "Examples": 27730,
  "Exc": 40127,
  "Excellent": 45675,
  "Except": 30313,
  "Exception": 16922,
  "Exec": 23002,
  "Executive": 43885,
  "Exit": 30337,
  "Exp": 16870,
  "Exper": 20468,
  "Experience": 44901,
  "Experts": 38897,
  "Expl": 18438,
  "Explore": 35433,
  "Export": 43834,
  "Express": 38839,
  "Ext": 11627,
  "External": 41506,
  "Extra": 27726,
  "Extreme": 36716,
  "Ey": 36287,
  "Eye": 24876,
  "F": 37,
  "FA": 7708,
  "FACE": 49836,
  "FAQ": 42680,
  "FAULT": 38865,
  "FB": 26001,
  "FBI": 39379,
  "FC": 4851,
  "FD": 26009,
  "FE": 15112,
  "FER": 24302,
  "FF": 5777,
  "FFER": 45746,
  "FFFF": 29312,
  "FG": 30386,
  "FH": 44602,
  "FI": 11674,
  "FIELD": 44603,
  "FIG": 16254,
  "FIL": 46700,
  "FILE": 25664,
  "FIN": 20032,
  "FINE": 29940,
  "FINEST": 40236,
  "FIR": 39776,
  "FIX": 47084,
  "FK": 26236,
  "FL": 3697,
  "FLAG": 38948,
  "FM": 23264,
  "FML": 34708,
  "FN": 43221,
  "FO": 6080,
  "FOR": 13775,
  "FORE": 30818,
  "FORM": 21389,
  "FORMATION": 35036,
  "FOX": 47853,
  "FP": 5837,
  "FR": 10913,
  "FREE": 39274,
  "FS": 10652,
  "FT": 9792,
  "FTWARE": 37485,
  "FU": 38989,
  "FUL": 46476,
  "FUN": 42296,
  "FW": 24160,
  "FX": 17213,
  "FY": 43833,
  "Fa": 50110,
  "Fab": 43957,
  "Fac": 47522,
  "Face": 32388,
  "Facebook": 12025,
  "Fact": 29054,
  "Factor": 41384,
  "Factory": 22810,
  "FactoryReloaded": 37631,
  "Fail": 39044,
  "Failure": 50015,
  "Fair": 30099,
  "Faith": 45536,
  "Fake": 49233,
  "Fal": 41129,
  "Fall": 24750,
  "False": 25101,
  "Family": 24094,
  "Fan": 22480,
  "Fans": 36570,
  "Far": 21428,
  "Farm": 48412,
  "Fast": 22968,
  "Fat": 33804,
  "Father": 34823,
  "Favorite": 49434,
  "Fax": 46512,
  "Fe": 14304,
  "Fear": 37798,
  "Feature": 38816,
  "Featured": 37948,
  "Features": 23595,
  "Feb": 15146,
  "February": 21816,
  "Fed": 42268,
  "Federal": 24099,
  "Feed": 18332,
  "Feel": 35114,
  "Fel": 42493,
  "Female": 27273,
  "Fer": 43362,
  "Fest": 45139,
  "Few": 32351,
  "Fi": 10547,
  "Field": 15878,
  "Fif": 44403,
  "Fig": 14989,
  "Fight": 27365,
  "Fighting": 46375,
  "Figure": 11337,
  "Fil": 11928,
  "File": 8979,
  "Filename": 35063,
  "Files": 25876,
  "Fill": 33762,
  "Film": 39750,
  "Filter": 22417,
  "Fin": 18467,
  "Final": 19006,
  "Finally": 11158,
  "Financial": 43621,
  "Find": 16742,
  "Finding": 36276,
  "Fine": 34389,
  "Finish": 48658,
  "Fire": 13543,
  "First": 5962,
  "Firstly": 49709,
  "Fish": 39428,
  "Fit": 31805,
  "Five": 20029,
  "Fix": 22743,
  "Fixed": 13715,
  "Fl": 7414,
  "Fla": 47487,
  "Flag": 34227,
  "Flags": 40053,
  "Flash": 30670,
  "Fle": 47669,
  "Flickr": 47250,
  "Flight": 43069,
  "Flo": 33574,
  "Float": 43879,
  "Flor": 26953,
  "Florida": 31135,
  "Flow": 37535,
  "Fly": 33771,
  "Flying": 49095,
  "Focus": 34888,
  "Folder": 41092,
  "Follow": 7155,
  "Following": 14291,
  "Font": 23252,
  "FontSize": 38160,
  "Food": 24602,
  "Foot": 17574,
  "Football": 37316,
  "Footnote": 33795,
  "For": 1890,
  "Force": 10292,
  "Ford": 37308,
  "Fore": 16351,
  "Foreign": 33616,
  "Forest": 34605,
  "Forge": 19857,
  "ForgeModLoader": 24934,
  "Form": 8479,
  "Format": 26227,
  "Former": 14282,
  "Fort": 21926,
  "Fortunately": 31276,
  "Forward": 39746,
  "Found": 21077,
  "Four": 15137,
  "Fourth": 45530,
  "Fox": 19399,
  "Fr": 6732,
  "Fra": 49562,
  "Frag": 42974,
  "Fram": 21055,
  "Frame": 19778,
  "Frames": 35439,
  "Frameworks": 42026,
  "Fran": 38848,
  "Franc": 42885,
  "France": 28572,
  "Frank": 17439,
  "Fre": 20366,
  "Fred": 30847,
  "Free": 11146,
  "Freedom": 38885,
  "French": 24111,
  "Fresh": 35857,
  "Fri": 30214,
  "Friday": 20610,
  "Friend": 23331,
  "Friends": 36705,
  "From": 4863,
  "Front": 25886,
  "Fs": 42388,
  "Fu": 41133,
  "Fuck": 34094,
  "Fuel": 42663,
  "Full": 13295,
  "Fun": 24629,
  "Function": 22203,
  "Fund": 24553,
  "Further": 13518,
  "Furthermore": 24951,
  "Future": 29783,
  "G": 38,
  "GA": 9273,
  "GAME": 47109,
  "GAN": 45028,
  "GB": 4579,
  "GBT": 9146,
  "GC": 15916,
  "GD": 45113,
  "GE": 8264,
  "GEN": 35353,
  "GER": 30373,
  "GES": 48075,
  "GET": 18851,
  "GF": 21713,
  "GG": 11190,
  "GGGG": 25611,
  "GGGGGGGG": 40415,
  "GH": 17511,
  "GHz": 23741,
  "GI": 18878,
  "GL": 8763,
  "GM": 15548,
  "GMT": 49424,
  "GN": 16630,
  "GO": 11230,
  "GOP": 44962,
  "GP": 16960,
  "GPU": 33346,
  "GR": 10761,
  "GRE": 28934,
  "GREEN": 43016,
  "GROUND": 46025,
  "GROUP": 46846,
  "GS": 14313,
  "GT": 19555,
  "GU": 38022,
  "GUI": 40156,
  "GV": 37094,
  "GW": 33191,
  "GY": 31212,
  "Ga": 35389,
  "Gab": 46079,
  "Gal": 26552,
  "Gall": 37122,
  "Gallery": 29352,
  "Gam": 34777,
  "Game": 8777,
  "Gameplay": 43241,
  "Gamer": 33648,
  "Games": 24474,
  "Gaming": 45509,
  "Gar": 27676,
  "Gary": 33820,
  "Gas": 39699,
  "Gate": 22628,
  "Gay": 41787,
  "Gaza": 48790,
  "Gb": 49017,
  "Ge": 10082,
  "Gear": 38141,
  "Gen": 13746,
  "Gender": 41394,
  "Gene": 39358,
  "Gener": 8645,
  "General": 12218,
  "Generally": 37058,
  "Generic": 46189,
  "Georg": 33428,
  "George": 20191,
  "Georgia": 41072,
  "Ger": 38069,
  "German": 16010,
  "Germany": 27079,
  "Get": 3855,
  "Getting": 20570,
  "Getty": 6633,
  "Gh": 41126,
  "Ghost": 32001,
  "Gi": 33704,
  "Gil": 40747,
  "Girl": 24151,
  "Girls": 41044,
  "Give": 23318,
  "Given": 15056,
  "Giving": 49701,
  "Gl": 9861,
  "Glass": 47698,
  "Global": 22289,
  "Go": 5247,
  "Goal": 49045,
  "God": 13482,
  "Going": 27404,
  "Gold": 13306,
  "GoldMagikarp": 42202,
  "Golden": 32378,
  "Good": 10248,
  "Google": 11708,
  "Gordon": 47073,
  "Got": 30074,
  "Gov": 23774,
  "Govern": 29168,
  "Government": 28848,
  "Gr": 8642,
  "Gra": 46971,
  "Grab": 48400,
  "Grad": 42731,
  "Grade": 42233,
  "Graham": 45821,
  "Grand": 23581,
  "Grant": 45431,
  "Graph": 37065,
  "Graphics": 18172,
  "Gray": 46130,
  "Gre": 43887,
  "Great": 13681,
  "Greek": 44059,
  "Green": 13719,
  "Greg": 25025,
  "Grey": 49141,
  "Grid": 41339,
  "Gro": 42921,
  "Ground": 35539,
  "Group": 13247,
  "Growing": 43964,
  "Gs": 33884,
  "Gu": 8205,
  "Guard": 24502,
  "Guest": 42481,
  "Guide": 47889,
  "Gun": 22993,
  "Guy": 31080,
  "Gy": 44802,
  "H": 39,
  "HA": 7801,
  "HAEL": 47452,
  "HAHA": 21271,
  "HAHAHAHA": 39021,
  "HAM": 33363,
  "HB": 32886,
  "HC": 16045,
  "HCR": 43230,
  "HD": 10227,
  "HE": 13909,
  "HEAD": 37682,
  "HER": 16879,
  "HF": 29567,
  "HH": 16768,
  "HHHH": 41100,
  "HI": 25374,
  "HK": 38730,
  "HL": 6581,
  "HM": 36905,
  "HO": 32298,
  "HOME": 39069,
  "HOU": 46685,
  "HOW": 37181,
  "HP": 14082,
  "HQ": 41275,
  "HR": 17184,
  "HS": 7998,
  "HT": 6535,
  "HTML": 28656,
  "HTTP": 40717,
  "HUD": 28410,
  "HY": 42598,
  "Ha": 23303,
  "Hack": 32833,
  "Had": 25383,
  "Hal": 40202,
  "Half": 31305,
  "Hall": 34194,
  "Ham": 21281,
  "Hamilton": 45405,
  "Han": 29919,
  "Hand": 12885,
  "Handle": 37508,
  "Handler": 25060,
  "Happy": 25082,
  "Har": 13587,
  "Hard": 17309,
  "Hardware": 49865,
  "Harris": 41589,
  "Harry": 18308,
  "Hart": 44719,
  "Has": 19242,
  "Hash": 26257,
  "Hat": 40483,
  "Haunted": 46979,
  "Have": 11980,
  "Having": 14698,
  "Haw": 33055,
  "Hay": 31306,
  "He": 1544,
  "Head": 13847,
  "Header": 39681,
  "Health": 18081,
  "Heart": 28541,
  "Heat": 39596,
  "Heavy": 33210,
  "Height": 23106,
  "Hel": 12621,
  "Hell": 28254,
  "Hello": 15496,
  "Help": 22087,
  "Helper": 47429,
  "Hen": 26055,
  "Henry": 32476,
  "Her": 9360,
  "Here": 4342,
  "Herm": 48523,
  "Hero": 30411,
  "Hey": 10814,
  "Hi": 17250,
  "Hidden": 41691,
  "Hide": 38518,
  "Hig": 36124,
  "High": 11922,
  "Higher": 48708,
  "Hill": 36369,
  "Hillary": 20397,
  "His": 6653,
  "Hispanic": 43830,
  "Hist": 13749,
  "History": 18122,
  "Hit": 17889,
  "Hmm": 44217,
  "Ho": 28900,
  "Hol": 28115,
  "Hold": 26807,
  "Holy": 33336,
  "Hom": 28718,
  "Home": 16060,
  "Hon": 29478,
  "Honest": 37411,
  "Honestly": 40817,
  "Hong": 48559,
  "Hop": 23483,
  "Hope": 34456,
  "Hopefully": 32365,
  "Hor": 27991,
  "Host": 17932,
  "Hot": 21352,
  "Hour": 43223,
  "Hours": 39792,
  "House": 18102,
  "Houston": 33387,
  "How": 2437,
  "Howard": 32434,
  "However": 4864,
  "Http": 43481,
  "Hu": 38202,
  "Hub": 16066,
  "Hug": 48098,
  "Huh": 46010,
  "Hum": 32661,
  "Human": 20490,
  "Hun": 25117,
  "Hundreds": 38150,
  "Hung": 39505,
  "Hunt": 47663,
  "Hunter": 38803,
  "Hur": 42633,
  "Hy": 21217,
  "Hyd": 40436,
  "Hyp": 49926,
  "Hyper": 38197,
  "Hz": 7399,
  "I": 40,
  "IA": 3539,
  "IAL": 12576,
  "IAN": 16868,
  "IAS": 43429,
  "IB": 9865,
  "IBLE": 34563,
  "IC": 2149,
  "ICA": 25241,
  "ICAL": 20151,
  "ICAN": 42710,
  "ICE": 8476,
  "ICES": 34444,
  "ICH": 20739,
  "ICK": 11860,
  "ICLE": 31419,
  "ICO": 22707,
  "ICS": 19505,
  "ICT": 18379,
  "ID": 2389,
  "IDA": 41957,
  "IDE": 14114,
  "IDENT": 25256,
  "IDER": 41237,
  "IDES": 42538,
  "IDS": 14255,
  "IDs": 47954,
  "IE": 10008,
  "IED": 19767,
  "IELD": 49979,
  "IENCE": 42589,
  "IENT": 28495,
  "IER": 38311,
  "IES": 11015,
  "IF": 5064,
  "IFA": 19071,
  "IFE": 29150,
  "IFF": 29267,
  "IFIC": 30643,
  "IFIED": 28343,
  "IFT": 32297,
  "IG": 3528,
  "IGH": 18060,
  "IGHT": 9947,
  "IGHTS": 34874,
  "IGN": 16284,
  "II": 3978,
  "III": 10855,
  "IJ": 23852,
  "IK": 18694,
  "IL": 4146,
  "ILA": 47164,
  "ILD": 26761,
  "ILE": 41119,
  "ILL": 8267,
  "ILLE": 33844,
  "ILS": 45484,
  "ILY": 33340,
  "IM": 3955,
  "IME": 12789,
  "IN": 1268,
  "INA": 28893,
  "INAL": 17961,
  "INC": 30158,
  "IND": 12115,
  "INE": 8881,
  "INESS": 44180,
  "INFO": 10778,
  "ING": 2751,
  "INGS": 20754,
  "INGTON": 17480,
  "INK": 17248,
  "INO": 46016,
  "INS": 20913,
  "INST": 38604,
  "INT": 12394,
  "INTER": 41358,
  "INTON": 46812,
  "IO": 9399,
  "ION": 2849,
  "IONS": 11053,
  "IOR": 41254,
  "IP": 4061,
  "IPP": 31444,
  "IPS": 47643,
  "IQ": 33866,
  "IR": 4663,
  "IRC": 49060,
  "IRD": 46833,
  "IRE": 41736,
  "IRED": 37819,
  "IRO": 43708,
  "IRT": 48771,
  "IS": 1797,
  "ISA": 22312,
  "ISC": 37719,
  "ISE": 24352,
  "ISH": 18422,
  "ISION": 42446,
  "ISIS": 29322,
  "ISM": 31125,
  "ISO": 40734,
  "ISON": 39960,
  "ISS": 16744,
  "ISSION": 40373,
  "IST": 8808,
  "ISTER": 41517,
  "ISTORY": 42480,
  "IT": 2043,
  "ITAL": 40579,
  "ITCH": 31949,
  "ITE": 12709,
  "ITED": 22061,
  "ITH": 10554,
  "ITIES": 30383,
  "ITION": 17941,
  "ITNESS": 46144,
  "ITS": 29722,
  "ITT": 22470,
  "ITY": 9050,
  "IU": 44958,
  "IUM": 41796,
  "IV": 3824,
  "IVE": 9306,
  "IVER": 38757,
  "IVERS": 30194,
  "IVES": 42472,
  "IX": 10426,
  "IZ": 14887,
  "IZE": 35400,
  "Ian": 37776,
  "Ice": 23709,
  "Icon": 19578,
  "Id": 7390,
  "Ide": 41452,
  "Ident": 33234,
  "If": 1532,
  "Ign": 32916,
  "Il": 33666,
  "Ill": 21478,
  "Im": 3546,
  "Image": 5159,
  "Images": 29398,
  "Imagine": 25153,
  "Imm": 24675,
  "Imp": 26950,
  "Impl": 29710,
  "Import": 20939,
  "Important": 33796,
  "Impro": 23028,
  "Improve": 47531,
  "Improved": 35453,
  "In": 818,
  "Inc": 25517,
  "Includes": 42986,
  "Incre": 15562,
  "Increase": 46890,
  "Increased": 40281,
  "Increases": 28544,
  "Ind": 5497,
  "Indeed": 17854,
  "Independent": 40566,
  "Index": 15732,
  "India": 21569,
  "Indian": 30821,
  "Indiana": 49153,
  "Individual": 35392,
  "Indust": 35848,
  "Inf": 18943,
  "Info": 12360,
  "Information": 21918,
  "Ing": 27682,
  "Ingredients": 41222,
  "Init": 31768,
  "Initial": 24243,
  "Initialized": 28500,
  "Initially": 40443,
  "Input": 20560,
  "Ins": 20376,
  "Insert": 44402,
  "Inside": 24441,
  "Insp": 41502,
  "Inst": 6310,
  "Install": 15798,
  "Installation": 30838,
  "Instance": 33384,
  "Instant": 49933,
  "Instead": 13193,
  "InstoreAndOnline": 40241,
  "Instruct": 43993,
  "Int": 5317,
  "Integ": 34500,
  "Integer": 46541,
  "Intel": 24123,
  "Inter": 9492,
  "Interest": 19302,
  "Interested": 48860,
  "Interestingly": 33092,
  "Interface": 39317,
  "Intern": 15865,
  "Internal": 37693,
  "International": 24274,
  "Internet": 28566,
  "Interstitial": 29447,
  "Interview": 39945,
  "Introdu": 15005,
  "Introduced": 37143,
  "Introduction": 21906,
  "Inv": 19904,
  "Invalid": 44651,
  "Invest": 19070,
  "Investigators": 33528,
  "Iowa": 45186,
  "Ir": 23820,
  "Iran": 23798,
  "Iraq": 31206,
  "Ire": 48505,
  "Ireland": 49752,
  "Irish": 43293,
  "Iron": 22797,
  "Ironically": 44850,
  "Is": 3792,
  "Isa": 39443,
  "Islam": 16991,
  "Islamic": 26723,
  "Isn": 41451,
  "Israel": 14040,
  "Israeli": 29818,
  "Iss": 27738,
  "Issue": 45147,
  "It": 1026,
  "Italian": 45696,
  "Italy": 45001,
  "Item": 7449,
  "ItemImage": 25502,
  "ItemThumbnailImage": 39177,
  "ItemTracker": 47198,
  "Items": 23022,
  "Iter": 29993,
  "Iterator": 37787,
  "Its": 20459,
  "Iv": 45766,
  "J": 41,
  "JA": 37048,
  "JB": 47858,
  "JC": 34382,
  "JD": 37882,
  "JECT": 23680,
  "JJ": 32178,
  "JM": 50229,
  "JO": 45006,
  "JOHN": 47118,
  "JP": 12889,
  "JR": 44817,
  "JS": 20120,
  "JSON": 40386,
  "JUST": 25008,
  "JV": 41697,
  "Ja": 33186,
  "Jac": 28821,
  "Jack": 14295,
  "Jackson": 31270,
  "Jacob": 46751,
  "Jake": 43930,
  "Jam": 30380,
  "James": 14731,
  "Jamie": 48337,
  "Jan": 12128,
  "Jane": 41083,
  "January": 21339,
  "Japan": 16504,
  "Japanese": 25324,
  "Jar": 47511,
  "Jason": 26497,
  "Java": 29584,
  "Jay": 30568,
  "Je": 40932,
  "Jean": 38248,
  "Jeff": 19139,
  "Jen": 44875,
  "Jenn": 35994,
  "Jennifer": 43187,
  "Jer": 36134,
  "Jere": 31579,
  "Jeremy": 35623,
  "Jerry": 43462,
  "Jes": 22290,
  "Jess": 34648,
  "Jessica": 45572,
  "Jesus": 28219,
  "Jet": 42273,
  "Jew": 23119,
  "Jewish": 28240,
  "Jews": 47415,
  "Jim": 18050,
  "Jimmy": 40335,
  "Jo": 9908,
  "Job": 33308,
  "Joe": 19585,
  "John": 7554,
  "Johnny": 44960,
  "Johnson": 25378,
  "Join": 18234,
  "Joined": 24363,
  "Jon": 18219,
  "Jonathan": 30365,
  "Jones": 25784,
  "Jordan": 34522,
  "Jose": 23409,
  "Joseph": 29458,
  "Josh": 23808,
  "Joshua": 47740,
  "Journal": 25296,
  "Joy": 41338,
  "Jr": 50123,
  "Js": 49044,
  "Ju": 33018,
  "Jud": 26141,
  "Judge": 29511,
  "Jul": 16980,
  "July": 16157,
  "Jump": 36046,
  "Jun": 22396,
  "June": 15749,
  "Just": 5703,
  "Justice": 28447,
  "Justin": 33229,
  "K": 42,
  "KA": 25123,
  "KB": 22764,
  "KC": 36222,
  "KE": 7336,
  "KEN": 43959,
  "KER": 42839,
  "KEY": 20373,
  "KI": 37845,
  "KING": 37286,
  "KK": 16601,
  "KN": 29132,
  "KNOWN": 44706,
  "KO": 22328,
  "KR": 30758,
  "KS": 27015,
  "KT": 42176,
  "KY": 31159,
  "Ka": 37281,
  "Kal": 41428,
  "Kansas": 43451,
  "Kar": 37753,
  "Karl": 46063,
  "Kat": 25881,
  "Kate": 45087,
  "Kay": 37247,
  "Ke": 8896,
  "Keefe": 48122,
  "Keep": 15597,
  "Keeping": 44815,
  "Keith": 46868,
  "Kelly": 34831,
  "Ken": 27827,
  "Kenn": 39324,
  "Kent": 42265,
  "Kevin": 23865,
  "Key": 9218,
  "Keys": 40729,
  "Kh": 33155,
  "Kick": 45390,
  "Kid": 48374,
  "Kids": 40229,
  "Kill": 27100,
  "Kim": 26374,
  "Kin": 49681,
  "Kind": 35854,
  "King": 15708,
  "Kings": 42912,
  "Kit": 20827,
  "Kn": 25095,
  "Knight": 44242,
  "Know": 23812,
  "Knowing": 45648,
  "Known": 29870,
  "Ko": 48735,
  "Krist": 40756,
  "Ku": 41733,
  "Ky": 30630,
  "Kyle": 42516,
  "L": 43,
  "LA": 13534,
  "LAB": 48780,
  "LAN": 25697,
  "LAND": 28182,
  "LB": 30501,
  "LC": 5639,
  "LCS": 29814,
  "LD": 11163,
  "LE": 2538,
  "LEASE": 22781,
  "LECT": 16779,
  "LED": 30465,
  "LER": 39878,
  "LES": 28378,
  "LESS": 48481,
  "LET": 28882,
  "LEY": 25173,
  "LG": 41257,
  "LGBT": 37701,
  "LI": 31271,
  "LIB": 40347,
  "LIN": 34509,
  "LINE": 24027,
  "LIST": 45849,
  "LL": 3069,
  "LLOW": 44765,
  "LM": 31288,
  "LO": 21982,
  "LOAD": 35613,
  "LOC": 29701,
  "LOCK": 36840,
  "LOD": 38543,
  "LOG": 25294,
  "LOS": 45376,
  "LP": 19930,
  "LR": 35972,
  "LS": 6561,
  "LT": 27734,
  "LU": 41596,
  "LV": 30976,
  "LY": 11319,
  "La": 14772,
  "Lab": 17822,
  "Label": 33986,
  "Labor": 42230,
  "Labour": 32475,
  "Lady": 38887,
  "Lago": 48694,
  "Lair": 40041,
  "Lake": 43035,
  "Land": 22342,
  "Language": 32065,
  "Large": 21968,
  "Larry": 42918,
  "Las": 46898,
  "Last": 5956,
  "Lastly": 37511,
  "Lat": 24220,
  "Late": 26302,
  "Later": 18602,
  "Latest": 39478,
  "Latin": 49022,
  "Laughs": 34610,
  "Laun": 46182,
  "Launch": 38296,
  "Laura": 43687,
  "Law": 16966,
  "Lay": 23763,
  "Layer": 49925,
  "Layout": 32517,
  "Le": 3123,
  "Lead": 20451,
  "Leader": 45009,
  "League": 24623,
  "Leaks": 17874,
  "Lean": 35806,
  "Lear": 14961,
  "Learn": 20238,
  "Learning": 41730,
  "Leary": 48487,
  "Leave": 35087,
  "Led": 42416,
  "Lee": 24338,
  "Left": 18819,
  "Leg": 11484,
  "Legal": 38263,
  "Legend": 21351,
  "Legendary": 24524,
  "Len": 30659,
  "Length": 24539,
  "Lenin": 49036,
  "Lens": 49479,
  "Leod": 44559,
  "Leon": 36185,
  "Les": 35882,
  "Less": 22058,
  "Let": 5756,
  "Letter": 45708,
  "Lev": 32163,
  "Level": 4971,
  "Lew": 33450,
  "Lewis": 40330,
  "Lex": 45117,
  "Li": 32304,
  "Lib": 25835,
  "Liber": 31199,
  "Liberal": 46650,
  "Library": 23377,
  "Lic": 26656,
  "License": 34156,
  "Lie": 47918,
  "Life": 14662,
  "Light": 15047,
  "Like": 7594,
  "Likewise": 45872,
  "Lim": 19352,
  "Limit": 39184,
  "Limited": 37214,
  "Lin": 14993,
  "Lind": 43410,
  "Line": 13949,
  "Link": 11280,
  "LinkedIn": 40574,
  "Links": 31815,
  "Linux": 19314,
  "Liquid": 41966,
  "Lisa": 44203,
  "List": 8053,
  "Listen": 23061,
  "Listener": 33252,
  "Liter": 43460,
  "Little": 22253,
  "Live": 18947,
  "Liverpool": 44232,
  "Living": 36376,
  "Lo": 27654,
  "Load": 8912,
  "Loader": 17401,
  "Loading": 19031,
  "Loc": 33711,
  "Local": 14565,
  "Located": 43525,
  "Location": 14749,
  "Lock": 25392,
  "Log": 11187,
  "Login": 47790,
  "London": 23421,
  "Long": 14617,
  "Look": 8567,
  "Looking": 15784,
  "Looks": 41102,
  "Loop": 39516,
  "Lord": 22438,
  "Los": 28903,
  "Lost": 31042,
  "Lot": 48601,
  "Lots": 43643,
  "Lou": 24016,
  "Louis": 32117,
  "Love": 18565,
  "Low": 20535,
  "Lower": 31426,
  "Lt": 49578,
  "Lu": 25596,
  "Lua": 36127,
  "Luc": 22946,
  "Luck": 35498,
  "Luckily": 42332,
  "Luke": 30730,
  "Lv": 29507,
  "Ly": 31633,
  "Lyn": 37207,
  "M": 44,
  "MA": 5673,
  "MAC": 44721,
  "MAG": 45820,
  "MAL": 42126,
  "MAN": 10725,
  "MAP": 33767,
  "MAR": 40569,
  "MAS": 31180,
  "MAT": 41636,
  "MAX": 22921,
  "MB": 10744,
  "MC": 9655,
  "MD": 12740,
  "ME": 11682,
  "MED": 30733,
  "MEN": 49275,
  "MENT": 10979,
  "MENTS": 28957,
  "MER": 29296,
  "MET": 47123,
  "METHOD": 49273,
  "MF": 49800,
  "MG": 20474,
  "MH": 36208,
  "MHz": 25983,
  "MI": 8895,
  "MIC": 49884,
  "MIN": 23678,
  "MIT": 36393,
  "MJ": 43421,
  "MK": 33907,
  "ML": 5805,
  "MM": 12038,
  "MN": 39764,
  "MO": 11770,
  "MOD": 33365,
  "MODE": 49058,
  "MON": 27857,
  "MORE": 23346,
  "MP": 7378,
  "MQ": 49215,
  "MR": 13599,
  "MRI": 40952,
  "MS": 5653,
  "MSN": 30295,
  "MT": 13752,
  "MU": 42422,
  "MW": 14326,
  "MX": 43243,
  "MY": 26708,
  "Ma": 21467,
  "Mac": 14155,
  "Mach": 49999,
  "Machine": 37573,
  "Mad": 18454,
  "Made": 24616,
  "Madison": 46845,
  "Mag": 13436,
  "Magazine": 36028,
  "Magic": 22975,
  "Magikarp": 41538,
  "Magn": 48017,
  "Mah": 40936,
  "Mail": 25804,
  "Main": 13383,
  "Major": 24206,
  "Make": 12050,
  "Maker": 48890,
  "Making": 23874,
  "Mal": 15029,
  "Male": 25486,
  "Malley": 33776,
  "Man": 5124,
  "Management": 48032,
  "Manager": 13511,
  "Manchester": 40744,
  "Mand": 49846,
  "Mania": 45844,
  "Manufact": 44445,
  "Many": 7085,
  "Map": 13912,
  "Maps": 47010,
  "Mar": 7676,
  "Marc": 22697,
  "March": 16192,
  "Marco": 37179,
  "Marcus": 35110,
  "Marg": 24428,
  "Marginal": 36003,
  "Maria": 46827,
  "Marie": 44507,
  "Mario": 42315,
  "Mark": 9704,
  "Market": 27470,
  "Mars": 43725,
  "Marsh": 41984,
  "Mart": 13143,
  "Martin": 24778,
  "Marvel": 38864,
  "Marx": 45258,
  "Mary": 24119,
  "Mas": 38224,
  "Mask": 45195,
  "Mass": 20273,
  "Master": 18254,
  "Mat": 19044,
  "Match": 23850,
  "Material": 17518,
  "Materials": 41657,
  "Math": 37372,
  "Matrix": 46912,
  "Matt": 13448,
  "Matthew": 25372,
  "Max": 11518,
  "Maximum": 40541,
  "May": 6747,
  "Maybe": 13300,
  "Mayor": 37396,
  "Mbps": 47842,
  "Mc": 9742,
  "McC": 30464,
  "Me": 5308,
  "Meanwhile": 10294,
  "Measure": 47384,
  "Meat": 35620,
  "Mech": 28452,
  "Med": 9921,
  "Media": 13152,
  "Medic": 39112,
  "Medical": 37158,
  "Medium": 31205,
  "Meet": 29318,
  "Meg": 42672,
  "Mega": 43471,
  "Mel": 21102,
  "Mem": 13579,
  "Member": 27608,
  "Members": 25341,
  "Memory": 30871,
  "Men": 10418,
  "Menu": 23381,
  "Mer": 13102,
  "Merc": 42981,
  "Merit": 21583,
  "Mesh": 37031,
  "Mess": 36479,
  "Message": 12837,
  "Met": 9171,
  "Meta": 48526,
  "Metal": 36790,
  "Method": 17410,
  "Methods": 46202,
  "Metro": 45141,
  "Mex": 24670,
  "Mexico": 33006,
  "Mi": 41541,
  "Miami": 41191,
  "Mic": 25437,
  "Mich": 11180,
  "Michael": 13256,
  "Michelle": 48736,
  "Michigan": 40610,
  "Micro": 13031,
  "Microsoft": 15905,
  "Mid": 22622,
  "Middle": 34621,
  "Mike": 16073,
  "Mil": 24857,
  "Military": 37837,
  "Mill": 22603,
  "Miller": 33253,
  "Min": 9452,
  "Mind": 28478,
  "Mine": 24461,
  "Minecraft": 39194,
  "Mini": 39234,
  "Minimum": 44046,
  "Minnesota": 45670,
  "Minor": 39825,
  "Mir": 27453,
  "Mis": 31281,
  "Miss": 17140,
  "Missing": 43730,
  "Mission": 37057,
  "Mist": 49370,
  "Mit": 43339,
  "Mix": 35608,
  "Mo": 16632,
  "Mob": 44702,
  "Mobil": 47100,
  "Mobile": 17066,
  "Mod": 5841,
  "ModLoader": 24847,
  "Mode": 19076,
  "Model": 17633,
  "Modern": 31439,
  "Mods": 24239,
  "Module": 26796,
  "Moh": 38443,
  "Mom": 29252,
  "Mon": 9069,
  "Monday": 23810,
  "Money": 26788,
  "Monitor": 35479,
  "Monster": 40872,
  "Mont": 26031,
  "Month": 31948,
  "Moon": 31640,
  "Moore": 40049,
  "Mor": 20044,
  "More": 5167,
  "Moreover": 24606,
  "Morgan": 47184,
  "Morning": 42997,
  "Mos": 32668,
  "Moscow": 49757,
  "Most": 6943,
  "Mot": 47733,
  "Mother": 31398,
  "Motion": 45740,
  "Motor": 34919,
  "Mount": 35452,
  "Mouse": 39643,
  "Move": 21774,
  "Movie": 25097,
  "Moving": 33622,
  "Mp": 28861,
  "MpServer": 31765,
  "Mr": 5246,
  "Mrs": 27034,
  "Ms": 10128,
  "Msg": 50108,
  "Mu": 33239,
  "Much": 20045,
  "Mult": 15205,
  "Multi": 29800,
  "Multiple": 31217,
  "Mur": 23830,
  "Murray": 49998,
  "Mus": 10694,
  "Music": 22648,
  "Muslim": 17067,
  "Muslims": 36452,
  "Must": 34320,
  "Mut": 41603,
  "My": 3666,
  "Myth": 41444,
  "N": 45,
  "NA": 4535,
  "NAME": 20608,
  "NAS": 18293,
  "NASA": 29998,
  "NAT": 34259,
  "NB": 32819,
  "NBA": 32470,
  "NBC": 13175,
  "NC": 7792,
  "ND": 8575,
  "NE": 12161,
  "NECT": 48842,
  "NER": 21479,
  "NES": 37379,
  "NESS": 31097,
  "NET": 12884,
  "NEW": 13965,
  "NEWS": 49597,
  "NEY": 36231,
  "NF": 21870,
  "NFL": 32078,
  "NG": 10503,
  "NH": 33863,
  "NI": 22125,
  "NING": 15871,
  "NJ": 41074,
  "NK": 46888,
  "NL": 32572,
  "NM": 32755,
  "NN": 6144,
  "NO": 15285,
  "NOR": 35510,
  "NOT": 11929,
  "NOTE": 16580,
  "NOW": 45669,
  "NP": 22182,
  "NPR": 38588,
  "NR": 24723,
  "NRS": 41256,
  "NS": 8035,
  "NSA": 47549,
  "NT": 11251,
  "NULL": 33991,
  "NUM": 41359,
  "NV": 27159,
  "NVIDIA": 38021,
  "NW": 27605,
  "NY": 12805,
  "NYSE": 49430,
  "NZ": 37371,
  "Na": 26705,
  "Name": 5376,
  "Names": 36690,
  "Nap": 49799,
  "Nar": 40059,
  "Narr": 45750,
  "Nat": 47849,
  "Nation": 46108,
  "National": 16186,
  "Native": 31272,
  "Natural": 35364,
  "Naturally": 44213,
  "Nature": 46934,
  "Nav": 30575,
  "Naz": 37235,
  "Nazi": 31343,
  "Nazis": 44527,
  "Ne": 8199,
  "Neal": 40581,
  "Near": 40640,
  "Nearly": 27927,
  "Need": 23037,
  "Neg": 32863,
  "Neigh": 46445,
  "Neil": 29354,
  "Neill": 26538,
  "Neither": 27270,
  "Net": 7934,
  "NetMessage": 25193,
  "Netflix": 42826,
  "Network": 26245,
  "Nev": 43555,
  "Never": 12295,
  "Nevertheless": 29011,
  "New": 3791,
  "News": 9980,
  "Newsletter": 33031,
  "Next": 10019,
  "Ni": 34153,
  "Nic": 30403,
  "Nice": 35284,
  "Nich": 46489,
  "Nick": 23609,
  "Night": 24732,
  "Nik": 40979,
  "Nin": 36091,
  "Nine": 37603,
  "Nintendo": 32348,
  "Nit": 33772,
  "Nitrome": 42066,
  "No": 2949,
  "Nob": 21191,
  "Nobody": 24795,
  "Node": 19667,
  "Non": 15419,
  "None": 14202,
  "Nonetheless": 43258,
  "Nor": 21991,
  "Norm": 35393,
  "Normal": 26447,
  "Normally": 43625,
  "North": 14157,
  "Northern": 40495,
  "Not": 3673,
  "Notable": 45533,
  "Note": 6425,
  "Notes": 16130,
  "Nothing": 18465,
  "Notice": 26396,
  "Nov": 20795,
  "November": 21159,
  "Now": 3844,
  "Ns": 47503,
  "Null": 35067,
  "Num": 33111,
  "Number": 15057,
  "Numbers": 49601,
  "Nusra": 39294,
  "Nut": 49004,
  "O": 46,
  "OA": 23621,
  "OAD": 41048,
  "OB": 9864,
  "OC": 4503,
  "OCK": 11290,
  "OD": 3727,
  "ODE": 16820,
  "ODUCT": 28644,
  "ODY": 33076,
  "OE": 27799,
  "OF": 19238,
  "OFF": 27977,
  "OG": 7730,
  "OGR": 49656,
  "OH": 12096,
  "OHN": 27600,
  "OIL": 49713,
  "OK": 11380,
  "OL": 3535,
  "OLD": 15173,
  "OLOG": 33462,
  "OLOGY": 43781,
  "OM": 2662,
  "OME": 13649,
  "ON": 1340,
  "OND": 18672,
  "ONDON": 47383,
  "ONE": 11651,
  "ONES": 39677,
  "ONEY": 48399,
  "ONG": 18494,
  "ONS": 19213,
  "ONSORED": 36406,
  "ONT": 35830,
  "ONY": 40508,
  "OO": 6684,
  "OOD": 22808,
  "OOK": 15308,
  "OOL": 31559,
  "OOOO": 23803,
  "OOOOOOOO": 47732,
  "OP": 3185,
  "OPA": 43345,
  "OPE": 32135,
  "OPER": 31054,
  "OPLE": 34354,
  "OPS": 30737,
  "OR": 1581,
  "ORD": 12532,
  "ORE": 6965,
  "ORED": 32023,
  "ORGE": 49697,
  "ORK": 14670,
  "ORN": 30649,
  "ORPG": 49665,
  "ORS": 20673,
  "ORT": 9863,
  "ORTS": 33002,
  "ORY": 15513,
  "OS": 2640,
  "OSE": 14058,
  "OSED": 48751,
  "OSH": 45704,
  "OSP": 47053,
  "OSS": 18420,
  "OST": 10892,
  "OT": 2394,
  "OTA": 29009,
  "OTAL": 27510,
  "OTE": 23051,
  "OTH": 26946,
  "OTHER": 31858,
  "OTO": 26631,
  "OTOS": 33291,
  "OTS": 33472,
  "OTT": 29089,
  "OTUS": 39205,
  "OU": 2606,
  "OUGH": 32632,
  "OULD": 24010,
  "OUN": 19385,
  "OUND": 15919,
  "OUNT": 28270,
  "OUP": 27755,
  "OUR": 11698,
  "OURCE": 31033,
  "OUS": 20958,
  "OUT": 12425,
  "OV": 8874,
  "OVA": 41576,
  "OVER": 41983,
  "OW": 3913,
  "OWER": 36048,
  "OWN": 14165,
  "OWS": 22845,
  "OX": 48632,
  "OY": 21414,
  "Oak": 42426,
  "Ob": 5944,
  "Obama": 15948,
  "Obj": 49201,
  "Object": 10267,
  "Obs": 31310,
  "Obviously": 20670,
  "Occ": 29223,
  "Occup": 47658,
  "Ocean": 46607,
  "Oct": 12349,
  "October": 18517,
  "Of": 5189,
  "Off": 9362,
  "Offic": 12710,
  "Office": 27743,
  "Officers": 34059,
  "Official": 28529,
  "Officials": 25883,
  "Offline": 28657,
  "Offset": 34519,
  "Often": 37288,
  "Oh": 5812,
  "Ohio": 31274,
  "Oil": 44142,
  "Ok": 18690,
  "Okay": 16454,
  "Ol": 30098,
  "Old": 19620,
  "On": 2202,
  "Once": 7454,
  "One": 3198,
  "Online": 14439,
  "Only": 10049,
  "Ont": 45984,
  "Op": 18257,
  "Open": 11505,
  "Opening": 43093,
  "Oper": 18843,
  "Operation": 32180,
  "Opp": 27524,
  "Ops": 41472,
  "Opt": 27871,
  "Option": 19722,
  "Optional": 30719,
  "Options": 29046,
  "Or": 5574,
  "Oracle": 48625,
  "Orange": 40141,
  "Ord": 35422,
  "Order": 18743,
  "Orderable": 39655,
  "Ore": 41543,
  "Oregon": 41243,
  "Org": 46808,
  "Organ": 26121,
  "Orig": 11610,
  "Origin": 39688,
  "Original": 20556,
  "Originally": 22731,
  "Os": 16748,
  "Other": 6395,
  "Others": 25599,
  "Otherwise": 48059,
  "Ott": 49092,
  "Our": 5122,
  "Out": 7975,
  "Output": 26410,
  "Outside": 30815,
  "Over": 5886,
  "Overall": 16350,
  "Override": 37961,
  "Overview": 29064,
  "Own": 23858,
  "Owner": 42419,
  "Ox": 38208,
  "P": 47,
  "PA": 4537,
  "PAC": 44938,
  "PAR": 27082,
  "PART": 30709,
  "PASS": 47924,
  "PATH": 34219,
  "PB": 49079,
  "PC": 5662,
  "PD": 5760,
  "PDATE": 14341,
  "PDATED": 49316,
  "PDF": 20456,
  "PE": 11401,
  "PER": 18973,
  "PET": 47731,
  "PF": 42668,
  "PG": 6968,
  "PH": 11909,
  "PHOTOS": 42709,
  "PI": 11901,
  "PIN": 44032,
  "PK": 40492,
  "PL": 6489,
  "PLA": 45710,
  "PLAY": 31519,
  "PLE": 16437,
  "PLIC": 31484,
  "PLIED": 49094,
  "PM": 5868,
  "PN": 13137,
  "PO": 16402,
  "POL": 45472,
  "POR": 44680,
  "PORT": 15490,
  "POS": 37997,
  "POSE": 48933,
  "POST": 32782,
  "PP": 10246,
  "PR": 4805,
  "PRE": 46437,
  "PRES": 48296,
  "PRESS": 32761,
  "PRO": 31190,
  "PROV": 41283,
  "PS": 3705,
  "PT": 11571,
  "PU": 5105,
  "PUT": 30076,
  "Pa": 28875,
  "Pac": 18844,
  "Pacific": 22933,
  "Pack": 11869,
  "Package": 27813,
  "Pad": 26114,
  "Page": 9876,
  "Pages": 47798,
  "Pain": 38490,
  "Pak": 29675,
  "Pakistan": 38485,
  "Pal": 11531,
  "Palest": 32570,
  "Palestinian": 35969,
  "Pan": 15730,
  "Pand": 47206,
  "Panel": 26639,
  "Paper": 42950,
  "Par": 10044,
  "Param": 22973,
  "Parameter": 36301,
  "Parameters": 48944,
  "Parent": 24546,
  "Parents": 42969,
  "Paris": 40313,
  "Park": 25478,
  "Parser": 46677,
  "Part": 7841,
  "Particip": 34363,
  "Parts": 42670,
  "Party": 33553,
  "Pass": 14478,
  "Password": 35215,
  "Past": 34533,
  "Pat": 12130,
  "Patch": 33952,
  "Path": 15235,
  "Patrick": 32718,
  "Pattern": 47546,
  "Paul": 12041,
  "Pause": 49991,
  "Pay": 19197,
  "Pe": 6435,
  "Peace": 43445,
  "Pear": 46262,
  "Ped": 43468,
  "Pen": 25553,
  "Penn": 39899,
  "People": 8061,
  "Per": 5990,
  "Percent": 31905,
  "Perfect": 36635,
  "Performance": 32273,
  "Perhaps": 13710,
  "Pers": 30946,
  "Person": 15439,
  "Personal": 30228,
  "Personally": 42322,
  "Pet": 25803,
  "Peter": 19727,
  "Pg": 31743,
  "Ph": 2725,
  "Phase": 35645,
  "Phil": 18673,
  "Philadelphia": 42349,
  "Philipp": 49680,
  "Phill": 41970,
  "Phoenix": 36422,
  "Phone": 6132,
  "Phones": 32212,
  "Phot": 27248,
  "Photo": 6191,
  "Photos": 21197,
  "Phys": 43215,
  "Physical": 31611,
  "Pi": 38729,
  "Pic": 39507,
  "Pick": 31686,
  "Pict": 21300,
  "Picture": 28070,
  "Pie": 48223,
  "Pierre": 36910,
  "Pin": 28348,
  "Ping": 49806,
  "Pink": 41912,
  "Pinterest": 35767,
  "Pir": 46772,
  "Pitt": 47627,
  "Pixel": 40809,
  "Pl": 3646,
  "Place": 27271,
  "Plan": 20854,
  "Planet": 41801,
  "Platform": 37148,
  "Play": 11002,
  "Player": 14140,
  "Players": 24860,
  "Playing": 36530,
  "Please": 5492,
  "Plex": 46383,
  "Plot": 43328,
  "Plug": 23257,
  "Plugin": 37233,
  "Plus": 17860,
  "Po": 18833,
  "Pocket": 45454,
  "Pod": 41565,
  "Point": 12727,
  "Points": 40710,
  "Pokemon": 48034,
  "PokÃ©": 41386,
  "PokÃ©mon": 46602,
  "Pol": 8017,
  "Police": 9039,
  "Policy": 36727,
  "Polit": 39866,
  "Political": 35443,
  "Politics": 43921,
  "Poll": 39176,
  "Poly": 34220,
  "Pont": 48039,
  "Pool": 27201,
  "Poor": 43920,
  "Pop": 16979,
  "Pope": 46172,
  "Population": 45251,
  "Port": 13924,
  "Portland": 45330,
  "Pos": 21604,
  "Position": 26545,
  "Post": 6307,
  "Posted": 14231,
  "Posts": 21496,
  "Pot": 25396,
  "Power": 13434,
  "Pr": 6836,
  "Pract": 49515,
  "Pre": 6719,
  "Pred": 39156,
  "Pref": 36698,
  "Prem": 24914,
  "Premium": 36787,
  "Prep": 37534,
  "Pres": 25460,
  "Present": 34695,
  "President": 10364,
  "Press": 13800,
  "Pretty": 35700,
  "Prev": 36854,
  "Preview": 48835,
  "Previous": 21448,
  "Previously": 36837,
  "Pri": 34487,
  "Price": 18124,
  "Prim": 23828,
  "Primary": 35170,
  "Prime": 26405,
  "Prin": 47231,
  "Princ": 42904,
  "Prince": 35784,
  "Print": 18557,
  "Prior": 22442,
  "Priv": 20184,
  "Privacy": 48948,
  "Private": 29067,
  "Pro": 2964,
  "Probably": 34784,
  "Problem": 40781,
  "Process": 18709,
  "Produ": 11547,
  "Product": 15667,
  "Production": 35027,
  "Products": 48650,
  "Prof": 15404,
  "Professional": 49138,
  "Professor": 25031,
  "Profile": 37046,
  "Program": 15167,
  "Progress": 32577,
  "Project": 16775,
  "Prom": 24129,
  "Proof": 44683,
  "Prop": 24331,
  "Property": 21746,
  "Pros": 35726,
  "Prosecut": 34301,
  "Prosecutors": 39401,
  "Prot": 19703,
  "Protect": 41426,
  "Prov": 15946,
  "Provider": 29495,
  "Proxy": 44148,
  "Ps": 12016,
  "Psy": 25918,
  "PsyNetMessage": 28666,
  "Psych": 31923,
  "Ptr": 46745,
  "Pub": 14876,
  "Public": 15202,
  "Published": 24492,
  "Publisher": 46471,
  "Pull": 42940,
  "Pur": 30026,
  "Purchase": 47651,
  "Pure": 49548,
  "Push": 49222,
  "Put": 11588,
  "Putin": 17060,
  "Putting": 46399,
  "Py": 20519,
  "Python": 37906,
  "Q": 48,
  "QB": 40291,
  "QL": 9711,
  "QU": 10917,
  "QUEST": 35780,
  "QUI": 43702,
  "QUIRE": 49128,
  "Qaeda": 19058,
  "Qaida": 41225,
  "Qu": 4507,
  "Qual": 46181,
  "Quality": 35013,
  "Quant": 24915,
  "Quantity": 31208,
  "Que": 15681,
  "Queen": 32466,
  "Query": 20746,
  "Quest": 12166,
  "Question": 24361,
  "Questions": 35741,
  "Queue": 34991,
  "Quick": 21063,
  "Quite": 44959,
  "Quote": 25178,
  "Quotes": 23138,
  "R": 49,
  "RA": 3861,
  "RAFT": 44700,
  "RAG": 33202,
  "RAL": 35296,
  "RAM": 24115,
  "RANT": 32506,
  "RAW": 20530,
  "RAY": 30631,
  "RB": 27912,
  "RC": 7397,
  "RD": 35257,
  "RE": 2200,
  "READ": 15675,
  "REAM": 32235,
  "REC": 38827,
  "RECT": 23988,
  "RED": 22083,
  "REDACTED": 45999,
  "REE": 11587,
  "REF": 31688,
  "REG": 31553,
  "REL": 16448,
  "RELATED": 20112,
  "REM": 40726,
  "REP": 35316,
  "RES": 19535,
  "RESULTS": 46274,
  "RET": 26087,
  "RF": 32754,
  "RFC": 41150,
  "RG": 48192,
  "RGB": 36982,
  "RH": 48587,
  "RI": 7112,
  "RIC": 41132,
  "RIP": 32618,
  "RIPT": 46023,
  "RL": 7836,
  "RM": 29138,
  "RN": 42336,
  "RNA": 27204,
  "RO": 13252,
  "ROM": 33676,
  "RON": 45806,
  "ROR": 16411,
  "RP": 20031,
  "RPG": 46954,
  "RR": 21095,
  "RS": 6998,
  "RT": 14181,
  "RW": 46747,
  "RY": 18276,
  "Ra": 21762,
  "Race": 35157,
  "Rachel": 44045,
  "Rad": 15546,
  "Radio": 26093,
  "Rah": 47135,
  "Raid": 49043,
  "Rail": 44631,
  "Rain": 31443,
  "Ram": 33754,
  "Rand": 38918,
  "Random": 29531,
  "Range": 17257,
  "Rank": 27520,
  "Ranked": 36713,
  "Rap": 35230,
  "Rare": 26737,
  "Rat": 29665,
  "Rate": 32184,
  "Rated": 15322,
  "Rather": 27202,
  "Rating": 29321,
  "Raven": 49098,
  "Raw": 27369,
  "Ray": 19591,
  "Re": 3041,
  "Read": 5569,
  "Reader": 33634,
  "Reading": 36120,
  "Ready": 35474,
  "Real": 15633,
  "Really": 26392,
  "Reason": 45008,
  "Reb": 28951,
  "Rec": 6690,
  "Recent": 26446,
  "Recently": 24661,
  "Recipe": 37523,
  "Recomm": 24898,
  "Recommend": 41248,
  "Recommended": 36171,
  "Record": 23739,
  "Rect": 45474,
  "Red": 7738,
  "Redd": 32259,
  "Reddit": 22367,
  "Redditor": 34832,
  "Ref": 8134,
  "Refer": 46238,
  "Reference": 26687,
  "References": 19927,
  "Reg": 8081,
  "Regarding": 39424,
  "Regardless": 27894,
  "Region": 47371,
  "Register": 38804,
  "Registered": 47473,
  "Registration": 47133,
  "Regular": 40164,
  "Reilly": 25819,
  "Rel": 6892,
  "Related": 9819,
  "Relations": 47117,
  "Release": 26362,
  "Released": 45037,
  "Reloaded": 36726,
  "Rem": 8413,
  "Remember": 16676,
  "Remote": 36510,
  "Remove": 27914,
  "Removed": 45975,
  "Ren": 26764,
  "Render": 45819,
  "Rep": 6207,
  "Repe": 47541,
  "Repeat": 40322,
  "Repl": 39232,
  "Reply": 36875,
  "Report": 19100,
  "Reporting": 42159,
  "Reports": 37844,
  "Represent": 40171,
  "Republic": 15431,
  "Republican": 25777,
  "Republicans": 28455,
  "Requ": 16844,
  "Request": 18453,
  "Required": 37374,
  "Requirements": 42249,
  "Requires": 39618,
  "Res": 4965,
  "Research": 25104,
  "Researchers": 25606,
  "Residents": 42347,
  "Resource": 26198,
  "Resources": 33236,
  "Resp": 19309,
  "Response": 31077,
  "Rest": 19452,
  "Result": 23004,
  "Results": 25468,
  "Ret": 9781,
  "Return": 13615,
  "Returns": 35561,
  "Reuters": 12637,
  "Rev": 18009,
  "Review": 14832,
  "Reviewed": 40266,
  "Reviewer": 35407,
  "Revolution": 50237,
  "Rew": 30003,
  "Reward": 48123,
  "Rex": 47389,
  "Rh": 38576,
  "Rich": 14868,
  "Richard": 22245,
  "Rick": 33048,
  "Right": 11028,
  "Ring": 39687,
  "River": 42204,
  "Ro": 15450,
  "Road": 29197,
  "Roaming": 27352,
  "Rob": 14350,
  "Rober": 15924,
  "Robert": 19156,
  "Roberts": 45487,
  "Robin": 40656,
  "Rock": 19665,
  "Rocket": 50218,
  "Rod": 27917,
  "Rog": 30417,
  "Roger": 43719,
  "Rogue": 48163,
  "Role": 47445,
  "Roll": 26869,
  "Rom": 22834,
  "Roman": 32454,
  "Romney": 42184,
  "Ron": 23672,
  "Room": 41178,
  "Root": 30016,
  "Ros": 35740,
  "Rose": 31087,
  "Ross": 38328,
  "Rot": 24864,
  "Round": 22685,
  "Route": 43401,
  "Row": 25166,
  "Roy": 32027,
  "Royal": 41861,
  "Rs": 31273,
  "Ru": 40464,
  "Rub": 21312,
  "Ruby": 32101,
  "Rule": 31929,
  "Rules": 37766,
  "Rum": 47127,
  "Run": 10987,
  "Runner": 49493,
  "Running": 28768,
  "Runtime": 41006,
  "Rus": 35313,
  "Rush": 49942,
  "Russ": 10020,
  "Russell": 46325,
  "Russia": 16347,
  "Russian": 16220,
  "Rust": 49444,
  "Ry": 46987,
  "Ryan": 21868,
  "S": 50,
  "SA": 4090,
  "SAM": 49302,
  "SAN": 36753,
  "SAY": 27358,
  "SB": 16811,
  "SC": 6173,
  "SCP": 48956,
  "SD": 10305,
  "SE": 5188,
  "SEA": 46887,
  "SEC": 23683,
  "SEE": 36078,
  "SELECT": 46506,
  "SER": 35009,
  "SET": 28480,
  "SF": 20802,
  "SG": 38475,
  "SH": 9693,
  "SHA": 37596,
  "SHARE": 42597,
  "SHIP": 49423,
  "SI": 11584,
  "SIGN": 46224,
  "SIM": 48913,
  "SIZE": 33489,
  "SK": 18831,
  "SL": 8634,
  "SM": 12310,
  "SN": 15571,
  "SO": 15821,
  "SON": 11782,
  "SOURCE": 47690,
  "SP": 4303,
  "SPA": 50087,
  "SPEC": 48451,
  "SPONSORED": 37190,
  "SQL": 17861,
  "SR": 12562,
  "SS": 5432,
  "SSL": 31127,
  "ST": 2257,
  "STAR": 46678,
  "STAT": 35744,
  "STATE": 44724,
  "STD": 32147,
  "STDOUT": 36886,
  "STE": 30516,
  "STEM": 25361,
  "STEP": 42135,
  "STER": 41809,
  "STON": 41924,
  "STR": 18601,
  "STRUCT": 46126,
  "SU": 12564,
  "SUP": 40331,
  "SW": 17887,
  "SY": 23060,
  "Sa": 33890,
  "Sab": 39646,
  "Sac": 38318,
  "Sad": 26699,
  "Sadly": 36725,
  "Safe": 31511,
  "Safety": 45372,
  "Sah": 32194,
  "Saharan": 40461,
  "Said": 47638,
  "Saint": 48615,
  "Sal": 19221,
  "Sales": 44490,
  "Salt": 43061,
  "Sam": 16305,
  "Same": 30556,
  "Sample": 36674,
  "Samsung": 32334,
  "San": 15017,
  "Sand": 18471,
  "Sanders": 26747,
  "Santa": 42694,
  "Sarah": 29284,
  "Sat": 20245,
  "Saturday": 19844,
  "Saudi": 36939,
  "Sav": 47362,
  "Save": 16928,
  "Sax": 41152,
  "Say": 25515,
  "Sc": 3351,
  "Scale": 29990,
  "Scan": 33351,
  "Scar": 44433,
  "Scene": 36542,
  "Sch": 14874,
  "Sche": 27054,
  "School": 26130,
  "Science": 26959,
  "Scient": 23010,
  "Scientists": 29193,
  "Scope": 43642,
  "Score": 26595,
  "Scot": 37559,
  "Scotland": 47230,
  "Scott": 19040,
  "Screen": 23901,
  "Screenshot": 34204,
  "Script": 7391,
  "Scroll": 29261,
  "Se": 4653,
  "Sea": 37567,
  "Sean": 26408,
  "Search": 18243,
  "Season": 18960,
  "Seattle": 34007,
  "Sec": 6558,
  "Second": 12211,
  "Secondly": 44276,
  "Secret": 23725,
  "Secretary": 38541,
  "Section": 16375,
  "Secure": 49793,
  "Security": 24074,
  "See": 6214,
  "Seeing": 36314,
  "Seg": 41030,
  "Sel": 48767,
  "Select": 17563,
  "Self": 24704,
  "Sem": 13900,
  "Semitic": 28753,
  "Semitism": 25406,
  "Sen": 10445,
  "Senate": 32998,
  "Senator": 29774,
  "Send": 25206,
  "Senior": 31224,
  "Sense": 41166,
  "Sensor": 47864,
  "Sent": 31837,
  "Sep": 19117,
  "Sept": 14635,
  "September": 17543,
  "Sequ": 44015,
  "Ser": 7089,
  "Serial": 32634,
  "Series": 27996,
  "Seriously": 42338,
  "Serv": 11838,
  "Server": 10697,
  "Service": 16177,
  "Services": 31007,
  "Session": 36044,
  "Set": 7248,
  "Setting": 34149,
  "Settings": 26232,
  "Setup": 40786,
  "Seven": 31334,
  "Several": 14945,
  "Sex": 23398,
  "Sexual": 49161,
  "Sh": 2484,
  "Shadow": 27447,
  "Sham": 43478,
  "Shape": 33383,
  "Shar": 40201,
  "Share": 11649,
  "Shares": 43566,
  "Sharp": 44336,
  "She": 3347,
  "Shell": 23248,
  "Sher": 28782,
  "Shield": 33651,
  "Shift": 33377,
  "Shin": 44592,
  "Ship": 25586,
  "Shipping": 45169,
  "Shock": 31646,
  "Shop": 29917,
  "Short": 16438,
  "Shortly": 30513,
  "Shot": 28512,
  "Should": 19926,
  "Show": 15307,
  "Shut": 39079,
  "Si": 42801,
  "Side": 24819,
  "Sign": 11712,
  "Sil": 15086,
  "Silver": 26766,
  "Sim": 8890,
  "Similar": 18925,
  "Similarly": 28039,
  "Simon": 35475,
  "Simple": 26437,
  "Simply": 35596,
  "Sin": 46200,
  "Since": 6385,
  "Sing": 29974,
  "Single": 28008,
  "Sir": 22788,
  "Sit": 46655,
  "Site": 29123,
  "Six": 21447,
  "Size": 10699,
  "Sk": 15739,
  "Skill": 35040,
  "Skin": 42455,
  "Skip": 50232,
  "Sky": 22308,
  "Sl": 11122,
  "Sleep": 40555,
  "Slot": 38963,
  "Slow": 36423,
  "Sm": 7556,
  "Small": 18712,
  "Smart": 25610,
  "Smith": 17919,
  "Sn": 16501,
  "Snake": 49795,
  "Snap": 43826,
  "Snow": 28974,
  "So": 2396,
  "Soc": 37949,
  "Social": 20636,
  "Socket": 39105,
  "Soft": 18380,
  "Software": 25423,
  "Sol": 36949,
  "Solar": 38825,
  "Sold": 33873,
  "Solid": 46933,
  "Solution": 46344,
  "Some": 4366,
  "Someone": 28211,
  "Something": 22210,
  "Sometimes": 15468,
  "Son": 31056,
  "Song": 44241,
  "Sony": 32895,
  "Soon": 28093,
  "Sorry": 14385,
  "Sort": 42758,
  "Soul": 36315,
  "Sound": 21369,
  "Sounds": 40825,
  "Source": 7416,
  "SourceFile": 37226,
  "Sources": 21188,
  "South": 14942,
  "Southern": 44993,
  "Sov": 38574,
  "Soviet": 40408,
  "Sp": 4561,
  "Space": 14106,
  "SpaceEngineers": 31032,
  "Spain": 45355,
  "Spanish": 43584,
  "Spawn": 49855,
  "Spe": 5248,
  "Speaking": 13887,
  "Spec": 22882,
  "Special": 13409,
  "Specific": 32419,
  "Specifically": 48379,
  "Spect": 49738,
  "Speed": 22785,
  "Spell": 31221,
  "Sphere": 38882,
  "Spider": 41294,
  "Spirit": 41910,
  "Spl": 26568,
  "Split": 41205,
  "Spoiler": 31895,
  "Spons": 43522,
  "Sport": 42576,
  "Sports": 18153,
  "Spot": 32565,
  "Spr": 38454,
  "Spread": 44458,
  "Spring": 30387,
  "Squ": 22266,
  "Square": 48011,
  "St": 1273,
  "Stack": 25896,
  "Staff": 31449,
  "Stage": 29391,
  "Stan": 32140,
  "Stand": 15480,
  "Standard": 23615,
  "Standing": 44196,
  "Star": 8248,
  "Stars": 29366,
  "Start": 10434,
  "Starting": 22851,
  "Stat": 17126,
  "State": 9012,
  "Statement": 48682,
  "States": 42237,
  "Static": 45442,
  "Station": 12367,
  "Statistics": 48346,
  "Stats": 29668,
  "Status": 19580,
  "Stay": 25681,
  "Ste": 7447,
  "Steam": 19109,
  "Steel": 39807,
  "Step": 8600,
  "Stephen": 24920,
  "Steve": 19206,
  "Steven": 28292,
  "Stew": 49328,
  "Still": 9590,
  "Stock": 26207,
  "Stone": 34346,
  "Stop": 19485,
  "Storage": 31425,
  "Store": 22658,
  "Storm": 32173,
  "Story": 11605,
  "Str": 13290,
  "Stra": 41347,
  "Strange": 38114,
  "Stre": 30611,
  "Stream": 12124,
  "Streamer": 28696,
  "StreamerBot": 37574,
  "Street": 34356,
  "Strength": 45027,
  "Stretch": 39181,
  "Strike": 31584,
  "String": 10100,
  "Strong": 33004,
  "Struct": 44909,
  "Stud": 13007,
  "Student": 38778,
  "Students": 28239,
  "Studies": 45833,
  "Studio": 41501,
  "Study": 39841,
  "Sty": 18716,
  "Style": 21466,
  "Su": 5606,
  "Sub": 7004,
  "Subject": 19776,
  "Submit": 45135,
  "Subscribe": 27125,
  "Success": 33244,
  "Such": 16678,
  "Suddenly": 38582,
  "Suggest": 43857,
  "Sullivan": 47572,
  "Sum": 13065,
  "Summary": 22093,
  "Summer": 33560,
  "Sun": 16012,
  "Sund": 20602,
  "Sunday": 21934,
  "Sup": 40784,
  "Super": 12442,
  "Supp": 15979,
  "Supplement": 42615,
  "Support": 15514,
  "Supported": 48181,
  "Supporters": 49422,
  "Sur": 14214,
  "Sure": 19457,
  "Surv": 34652,
  "Sus": 30746,
  "Susan": 45842,
  "Sw": 10462,
  "Swe": 40783,
  "Sweet": 36087,
  "Switch": 38978,
  "Sword": 43117,
  "Sy": 13940,
  "Sym": 43094,
  "Syn": 29934,
  "Sync": 28985,
  "Synopsis": 49771,
  "Syria": 40029,
  "Syrian": 42747,
  "Sys": 44387,
  "System": 11964,
  "T": 51,
  "TA": 5603,
  "TABLE": 38148,
  "TAG": 42197,
  "TAIN": 30339,
  "TB": 22737,
  "TC": 4825,
  "TD": 21016,
  "TE": 9328,
  "TED": 36493,
  "TER": 5781,
  "TERN": 31800,
  "TEXT": 32541,
  "TEXTURE": 47648,
  "TF": 10234,
  "TG": 35990,
  "TH": 4221,
  "THE": 10970,
  "THER": 21250,
  "THING": 39356,
  "THIS": 43559,
  "TI": 25621,
  "TIME": 34694,
  "TING": 48996,
  "TION": 24131,
  "TIT": 49560,
  "TL": 14990,
  "TM": 15972,
  "TN": 46559,
  "TO": 10468,
  "TON": 11357,
  "TOP": 35222,
  "TOR": 32961,
  "TP": 7250,
  "TPP": 31435,
  "TPPStreamerBot": 37579,
  "TPS": 28820,
  "TR": 5446,
  "TRUMP": 42473,
  "TRY": 40405,
  "TS": 4694,
  "TT": 15751,
  "TV": 6849,
  "TW": 34551,
  "TX": 29551,
  "TY": 9936,
  "TYPE": 25216,
  "Ta": 38586,
  "Tab": 33349,
  "Table": 10962,
  "Tact": 45803,
  "Tag": 24835,
  "Tags": 36142,
  "Tai": 47976,
  "Take": 12322,
  "Taking": 26556,
  "Tal": 31466,
  "Talk": 25685,
  "Talking": 45904,
  "Tam": 42061,
  "Tan": 45557,
  "Tang": 43909,
  "Tank": 32978,
  "Tap": 45081,
  "Tar": 47079,
  "Target": 21745,
  "Task": 25714,
  "Tax": 27017,
  "Taylor": 29907,
  "Te": 6767,
  "TeX": 49568,
  "Tea": 49770,
  "Team": 15592,
  "Tech": 17760,
  "Techn": 25574,
  "Technical": 45638,
  "Technology": 44893,
  "Ted": 38972,
  "Teen": 45639,
  "Tel": 33317,
  "Tele": 31709,
  "Tell": 24446,
  "Tem": 12966,
  "Temp": 30782,
  "Temperature": 42492,
  "Template": 30800,
  "Ten": 24893,
  "Tenn": 43139,
  "Ter": 15156,
  "Term": 40596,
  "Termin": 44798,
  "Terror": 40194,
  "Terry": 50241,
  "Tes": 36504,
  "Tesla": 41351,
  "Test": 14402,
  "Testing": 44154,
  "Tex": 17005,
  "Texas": 21607,
  "Text": 8206,
  "TextColor": 42470,
  "Texture": 32742,
  "Textures": 39860,
  "Th": 817,
  "Thank": 10449,
  "Thankfully": 48387,
  "Thanks": 9690,
  "That": 2504,
  "The": 464,
  "Their": 14574,
  "Theme": 47863,
  "Then": 6423,
  "Ther": 35048,
  "There": 1858,
  "Therefore": 26583,
  "These": 4711,
  "They": 2990,
  "Things": 22248,
  "Think": 22073,
  "Third": 22747,
  "Thirty": 38856,
  "This": 1212,
  "Thom": 37582,
  "Thomas": 22405,
  "Thompson": 48942,
  "Thor": 46765,
  "Those": 9627,
  "Though": 10915,
  "Thousands": 37482,
  "Thread": 16818,
  "Three": 12510,
  "Through": 15046,
  "Throughout": 26797,
  "Throw": 39431,
  "Thu": 39902,
  "Thumbnail": 35523,
  "ThumbnailImage": 39142,
  "Thunder": 45713,
  "Thursday": 25381,
  "Thus": 19093,
  "Ti": 40533,
  "Tickets": 43254,
  "Tier": 35252,
  "Tile": 35103,
  "Tim": 14967,
  "Time": 7575,
  "Timeout": 48031,
  "Timer": 48801,
  "Times": 28595,
  "Tip": 28434,
  "Tips": 43368,
  "Title": 19160,
  "To": 2514,
  "Today": 8888,
  "Todd": 42817,
  "Together": 41631,
  "Tok": 19042,
  "Token": 30642,
  "Tokens": 22906,
  "Tom": 13787,
  "Tomorrow": 49488,
  "Ton": 35416,
  "Tonight": 43783,
  "Tony": 29387,
  "Too": 23307,
  "Tool": 25391,
  "Tools": 33637,
  "Top": 9126,
  "Topic": 33221,
  "Topics": 25902,
  "Tor": 15884,
  "Toronto": 31359,
  "Torrent": 39286,
  "Total": 14957,
  "Touch": 35211,
  "Tour": 39152,
  "Town": 38097,
  "Toy": 48236,
  "Tr": 2898,
  "Tra": 15721,
  "Track": 24802,
  "Tracker": 35694,
  "Trade": 35965,
  "Traditional": 48485,
  "Train": 44077,
  "Training": 44357,
  "Trans": 8291,
  "Transaction": 48720,
  "Transfer": 43260,
  "Transform": 41762,
  "Translation": 48313,
  "Travel": 33074,
  "Tre": 31055,
  "Tree": 27660,
  "Trend": 45461,
  "Tri": 14824,
  "Trigger": 48344,
  "Trivia": 23854,
  "Tro": 44095,
  "True": 17821,
  "Trump": 6170,
  "Trust": 33814,
  "Truth": 38782,
  "Try": 23433,
  "Ts": 33758,
  "Tu": 47247,
  "Tube": 6876,
  "Tue": 41392,
  "Tuesday": 26133,
  "Tumblr": 39415,
  "Tur": 17483,
  "Turkey": 31632,
  "Turkish": 42872,
  "Turn": 17278,
  "Tw": 5080,
  "Twe": 32665,
  "Tweet": 47845,
  "Twenty": 34096,
  "Twitter": 14254,
  "Two": 7571,
  "Tx": 46047,
  "Ty": 25492,
  "Tyler": 46807,
  "Typ": 31467,
  "Type": 6030,
  "Types": 31431,
  "Typically": 49321,
  "U": 52,
  "UA": 34970,
  "UAL": 25620,
  "UB": 10526,
  "UC": 9598,
  "UCK": 16696,
  "UCT": 18415,
  "UD": 8322,
  "UE": 8924,
  "UES": 35409,
  "UF": 36820,
  "UFC": 44534,
  "UFF": 47588,
  "UG": 7340,
  "UGC": 31179,
  "UGE": 41251,
  "UGH": 44004,
  "UI": 10080,
  "UID": 27586,
  "UK": 15039,
  "UL": 6239,
  "ULAR": 37232,
  "ULE": 24212,
  "ULL": 9994,
  "ULT": 16724,
  "ULTS": 35342,
  "UM": 5883,
  "UME": 38340,
  "UMP": 20476,
  "UN": 4944,
  "UNCH": 47461,
  "UNE": 41884,
  "UP": 8577,
  "UPDATE": 16977,
  "UR": 4261,
  "URA": 45570,
  "URE": 11335,
  "URES": 29514,
  "URI": 47269,
  "URL": 21886,
  "URN": 27064,
  "URR": 31302,
  "URRENT": 39237,
  "US": 2937,
  "USA": 14053,
  "USB": 27155,
  "USD": 29072,
  "USE": 19108,
  "USER": 29904,
  "USH": 27143,
  "USS": 32835,
  "UST": 7759,
  "UT": 3843,
  "UTC": 17429,
  "UTE": 37780,
  "UTERS": 14974,
  "UTF": 48504,
  "UTH": 24318,
  "UTION": 35354,
  "UU": 30100,
  "UV": 31667,
  "UX": 31235,
  "Ub": 36609,
  "Uber": 39018,
  "Uh": 34653,
  "Uk": 28425,
  "Ukraine": 44814,
  "Ul": 47920,
  "Ult": 16301,
  "Ultimate": 47892,
  "Ultimately": 27212,
  "Ultra": 36122,
  "Um": 37280,
  "Un": 3118,
  "Uncommon": 43023,
  "Und": 31319,
  "Under": 9203,
  "Understanding": 43467,
  "Unfortunately": 13898,
  "Union": 38176,
  "Unique": 40257,
  "Unit": 26453,
  "United": 17013,
  "Unity": 35955,
  "Universal": 38747,
  "University": 21009,
  "Unix": 47000,
  "Unknown": 20035,
  "Unless": 28042,
  "Unlike": 18521,
  "Unt": 35792,
  "Until": 18273,
  "Untitled": 46332,
  "Up": 4933,
  "Update": 10260,
  "Updated": 17354,
  "Upgrade": 44948,
  "Upload": 41592,
  "Upon": 23792,
  "Ur": 16692,
  "Urban": 46667,
  "Url": 28165,
  "Us": 5842,
  "Usage": 28350,
  "Use": 11041,
  "Used": 38052,
  "User": 12982,
  "Users": 14490,
  "Using": 12814,
  "Usually": 37887,
  "Ut": 18274,
  "Utah": 44350,
  "V": 53,
  "VA": 11731,
  "VAL": 23428,
  "VALUE": 39488,
  "VB": 44526,
  "VC": 15922,
  "VD": 8898,
  "VE": 6089,
  "VEL": 18697,
  "VEN": 28290,
  "VER": 5959,
  "VERS": 28884,
  "VERSION": 43717,
  "VERT": 15858,
  "VERTIS": 18000,
  "VERTISEMENT": 18679,
  "VG": 43490,
  "VI": 12861,
  "VICE": 27389,
  "VID": 11008,
  "VIDEO": 42937,
  "VIDIA": 13171,
  "VIEW": 28206,
  "VII": 45529,
  "VILLE": 38526,
  "VIS": 29817,
  "VK": 47191,
  "VL": 47468,
  "VM": 15996,
  "VO": 29516,
  "VOL": 44558,
  "VP": 8859,
  "VPN": 33883,
  "VR": 13024,
  "VS": 20304,
  "VT": 36392,
  "VW": 30133,
  "Va": 33906,
  "Val": 7762,
  "Valid": 47139,
  "Value": 11395,
  "Values": 40161,
  "Van": 25298,
  "Var": 19852,
  "Vari": 23907,
  "Variable": 43015,
  "Various": 40009,
  "Vaults": 33937,
  "Ve": 26979,
  "Vector": 38469,
  "Veh": 37870,
  "Vel": 46261,
  "Ven": 37522,
  "Ver": 13414,
  "Vers": 34947,
  "Version": 14815,
  "Versions": 45150,
  "Vert": 42369,
  "Very": 16371,
  "Veter": 45182,
  "Vi": 38432,
  "Via": 30754,
  "Vice": 47910,
  "Vict": 21944,
  "Victoria": 49898,
  "Video": 10798,
  "View": 7680,
  "Vill": 42074,
  "Viol": 33894,
  "Virgin": 34674,
  "Virginia": 41017,
  "Virtual": 37725,
  "Vis": 15854,
  "Vision": 44206,
  "Visit": 31141,
  "Visual": 36259,
  "Vo": 42144,
  "Voice": 35708,
  "Vol": 16598,
  "Volume": 31715,
  "Vote": 37394,
  "Vs": 23266,
  "W": 54,
  "WA": 15543,
  "WAR": 16279,
  "WARD": 39743,
  "WARE": 33746,
  "WARN": 37771,
  "WARNING": 31502,
  "WASHINGTON": 21793,
  "WATCH": 35192,
  "WAY": 27285,
  "WAYS": 42451,
  "WB": 45607,
  "WC": 27353,
  "WD": 22332,
  "WE": 8845,
  "WER": 45532,
  "WF": 48397,
  "WH": 12418,
  "WHAT": 32971,
  "WHERE": 47357,
  "WHO": 41856,
  "WI": 36326,
  "WIN": 37620,
  "WIND": 28929,
  "WINDOWS": 33207,
  "WM": 22117,
  "WN": 29767,
  "WOOD": 49466,
  "WOR": 45359,
  "WORK": 33249,
  "WP": 25527,
  "WR": 18564,
  "WS": 19416,
  "WT": 39386,
  "WW": 17947,
  "Wa": 33484,
  "Wait": 21321,
  "Wal": 21902,
  "Walk": 35963,
  "Walker": 39950,
  "Wall": 22401,
  "Wallet": 47152,
  "Wan": 45681,
  "Want": 19633,
  "War": 13195,
  "Ward": 49021,
  "Ware": 38824,
  "Warning": 20361,
  "Warren": 43464,
  "Wars": 41508,
  "Was": 16973,
  "Washington": 17402,
  "Watch": 10723,
  "Water": 19184,
  "Wave": 39709,
  "Way": 25309,
  "We": 1135,
  "Weak": 44898,
  "Weapon": 27632,
  "Weapons": 41818,
  "Weather": 41865,
  "Web": 13908,
  "Website": 33420,
  "Wed": 19864,
  "Wednesday": 27150,
  "Week": 20916,
  "Weight": 25844,
  "Weiss": 48760,
  "Welcome": 14618,
  "Well": 5779,
  "Were": 35653,
  "West": 15045,
  "Western": 24227,
  "Wh": 1199,
  "What": 2061,
  "Whatever": 21875,
  "Whe": 10842,
  "Wheel": 45307,
  "When": 2215,
  "Whenever": 28877,
  "Where": 8496,
  "Whereas": 48494,
  "Whether": 15354,
  "Which": 13828,
  "While": 3633,
  "Whit": 43617,
  "White": 12256,
  "Who": 8241,
  "Whoever": 47896,
  "Why": 5195,
  "Wi": 31294,
  "Wide": 42559,
  "Widget": 38300,
  "Width": 30916,
  "Wik": 33010,
  "Wiki": 32603,
  "Wikipedia": 48845,
  "Wil": 22327,
  "Wild": 25946,
  "Will": 8743,
  "William": 17121,
  "Williams": 27869,
  "Wilson": 37349,
  "Win": 16643,
  "Wind": 8731,
  "Window": 27703,
  "Windows": 11209,
  "Wing": 35612,
  "Winged": 47418,
  "Winner": 48056,
  "Winter": 35376,
  "Wire": 29451,
  "Wisconsin": 49097,
  "With": 3152,
  "WithNo": 35992,
  "Within": 22005,
  "Without": 16249,
  "Witness": 38670,
  "Wo": 49450,
  "Wolf": 32069,
  "Woman": 48081,
  "Women": 18495,
  "Wonder": 42337,
  "Wood": 22911,
  "Word": 26449,
  "Words": 37117,
  "Work": 12468,
  "Working": 28516,
  "Works": 23044,
  "World": 10603,
  "Would": 17353,
  "Wow": 22017,
  "Wr": 39213,
  "Wra": 36918,
  "Writ": 20257,
  "Write": 16594,
  "Writer": 34379,
  "Writing": 33874,
  "Written": 25354,
  "Ws": 46456,
  "X": 55,
  "XL": 32457,
  "XM": 37643,
  "XP": 27481,
  "XT": 25010,
  "XX": 8051,
  "XXX": 43145,
  "XXXX": 24376,
  "XY": 34278,
  "Xbox": 43377,
  "Xi": 42528,
  "Y": 56,
  "YA": 44947,
  "YC": 44816,
  "YD": 35755,
  "YE": 48743,
  "YES": 43335,
  "YING": 45761,
  "YL": 45448,
  "YN": 40760,
  "YOU": 36981,
  "YP": 48232,
  "YR": 38162,
  "YS": 16309,
  "YY": 26314,
  "Yan": 49664,
  "Yang": 38663,
  "Ye": 35543,
  "Yeah": 10995,
  "Year": 17688,
  "Years": 40630,
  "Yellow": 39499,
  "Yep": 47834,
  "Yes": 5297,
  "Yesterday": 28065,
  "Yet": 11486,
  "Yo": 38101,
  "York": 49278,
  "You": 1639,
  "YouTube": 33869,
  "Young": 20917,
  "Your": 7120,
  "Yu": 40728,
  "Z": 57,
  "ZA": 34892,
  "ZE": 21211,
  "ZI": 48926,
  "ZX": 40692,
  "ZZ": 30148,
  "Ze": 36056,
  "Zen": 47573,
  "Zero": 28667,
  "Zip": 41729,
  "Zone": 26961,
  "[": 58,
  "[\"": 14692,
  "['": 17816,
  "[/": 13412,
  "[[": 30109,
  "[]": 21737,
  "[_": 29795,
  "\\": 59,
  "\\\"": 7879,
  "\\\",": 34607,
  "\\\":": 30478,
  "\\\">": 38214,
  "\\'": 43054,
  "\\)": 22725,
  "\\-": 41441,
  "\\.": 17405,
  "\\/": 11139,
  "\\/\\/": 45422,
  "\\<": 49778,
  "\\\\": 6852,
  "\\\\\\\\": 13426,
  "\\\\\\\\\\\\\\\\": 21807,
  "\\\\\\\\\\\\\\\\\\\\\\\\\\\\\\\\": 34604,
  "]": 60,
  "]\"": 30866,
  "]'": 49946,
  "](": 16151,
  "])": 12962,
  "]),": 46570,
  "]).": 35944,
  "]);": 36563,
  "]+": 48688,
  "],": 4357,
  "],\"": 17241,
  "],[": 38430,
  "]-": 45297,
  "].": 4083,
  "].\"": 29225,
  "]:": 5974,
  "];": 11208,
  "]=": 22241,
  "][": 7131,
  "][/": 44926,
  "]]": 11907,
  "]}": 48999,
  "^": 61,
  "^^": 18237,
  "^^^^": 39397,
  "^{": 36796,
  "_": 62,
  "_(": 41052,
  "_-": 22955,
  "_-_": 31386,
  "_.": 44807,
  "_>": 49029,
  "__": 834,
  "___": 17569,
  "____": 1427,
  "_____": 29343,
  "______": 25947,
  "_______": 37405,
  "________": 2602,
  "________________": 4841,
  "________________________": 32941,
  "________________________________": 10221,
  "________________________________________________________________": 27193,
  "_{": 23330,
  "`": 63,
  "`,": 47671,
  "`.": 44646,
  "``": 15506,
  "````": 33153,
  "a": 64,
  "aa": 7252,
  "aaa": 46071,
  "aaaa": 24794,
  "aah": 37500,
  "aan": 28340,
  "ab": 397,
  "aba": 15498,
  "abad": 17325,
  "abal": 44349,
  "abama": 8809,
  "aban": 45094,
  "aband": 49248,
  "abase": 5754,
  "abases": 18826,
  "abb": 6485,
  "abba": 48910,
  "abbage": 32061,
  "abbit": 14229,
  "abbling": 47883,
  "abby": 42457,
  "abc": 39305,
  "abe": 11231,
  "abee": 32580,
  "abel": 9608,
  "abella": 43653,
  "aber": 27359,
  "abet": 8380,
  "abetes": 11064,
  "abeth": 9407,
  "abetic": 33312,
  "abi": 17914,
  "abiding": 43056,
  "abies": 43256,
  "abil": 14991,
  "abilia": 48249,
  "abilities": 5738,
  "ability": 1799,
  "abin": 6014,
  "abis": 8102,
  "abit": 29968,
  "abl": 23117,
  "able": 540,
  "abled": 4510,
  "ables": 2977,
  "abling": 11716,
  "ablish": 17148,
  "ablished": 22555,
  "ablishment": 25380,
  "ablo": 18817,
  "ably": 1346,
  "abo": 34748,
  "abol": 28426,
  "abolic": 29304,
  "abor": 4820,
  "abortion": 32396,
  "about": 10755,
  "abouts": 27880,
  "above": 29370,
  "abre": 46241,
  "abs": 8937,
  "absolute": 48546,
  "absolutely": 42994,
  "absor": 46303,
  "abul": 16665,
  "abulary": 22528,
  "abus": 46844,
  "abuse": 47158,
  "abwe": 27050,
  "aby": 3930,
  "abyte": 37828,
  "abytes": 38346,
  "ac": 330,
  "aca": 22260,
  "acan": 50195,
  "acas": 40263,
  "acc": 4134,
  "acca": 43552,
  "accept": 13635,
  "acceptable": 16037,
  "access": 15526,
  "accessible": 33780,
  "acci": 44456,
  "acco": 8679,
  "accompan": 41974,
  "accompanied": 42588,
  "according": 38169,
  "account": 23317,
  "ace": 558,
  "acea": 44977,
  "aceae": 48319,
  "acebook": 2887,
  "aced": 2286,
  "acement": 5592,
  "acements": 28613,
  "acent": 12643,
  "aceous": 37797,
  "acer": 11736,
  "acerb": 22428,
  "acers": 49908,
  "aces": 2114,
  "acet": 23253,
  "aceutical": 14642,
  "acey": 25415,
  "ach": 620,
  "acha": 34518,
  "achable": 34446,
  "ache": 4891,
  "ached": 2317,
  "achel": 9636,
  "achelor": 19335,
  "acher": 3493,
  "achers": 17892,
  "aches": 3694,
  "achev": 42961,
  "achi": 14299,
  "achine": 20480,
  "aching": 8103,
  "achment": 15520,
  "acho": 43703,
  "acht": 19725,
  "achu": 32323,
  "achus": 9523,
  "achusetts": 9770,
  "achy": 35586,
  "aci": 32009,
  "acia": 47431,
  "acial": 18150,
  "acid": 46309,
  "acies": 13433,
  "acing": 4092,
  "acio": 48711,
  "acion": 49443,
  "acious": 14209,
  "aciously": 45289,
  "acist": 20279,
  "acists": 33194,
  "acity": 4355,
  "ack": 441,
  "acked": 6021,
  "acker": 10735,
  "ackers": 28874,
  "acket": 8317,
  "ackets": 25180,
  "acking": 5430,
  "ackle": 20523,
  "acks": 4595,
  "acky": 36053,
  "acl": 37779,
  "acle": 6008,
  "acles": 9928,
  "acly": 39691,
  "aclysm": 40605,
  "aco": 10602,
  "acon": 7807,
  "acons": 37256,
  "acqu": 43561,
  "acre": 12345,
  "acs": 16436,
  "act": 529,
  "acted": 23800,
  "acter": 7321,
  "acteria": 10634,
  "acterial": 44965,
  "acters": 19858,
  "actic": 12009,
  "acting": 27362,
  "action": 2673,
  "actionDate": 31538,
  "actions": 4658,
  "activ": 15791,
  "activate": 39022,
  "activated": 33106,
  "activation": 48545,
  "active": 5275,
  "actively": 33329,
  "activity": 21797,
  "actly": 24342,
  "actor": 11218,
  "actory": 9548,
  "acts": 8656,
  "actual": 50039,
  "actually": 37739,
  "actus": 34144,
  "acular": 12754,
  "acus": 48628,
  "acy": 1590,
  "ad": 324,
  "ada": 4763,
  "adal": 31682,
  "adan": 29157,
  "adapt": 42552,
  "adas": 38768,
  "adata": 14706,
  "aday": 43593,
  "adays": 20544,
  "add": 2860,
  "addafi": 32113,
  "added": 29373,
  "adden": 38014,
  "adder": 26676,
  "adders": 45940,
  "addin": 46782,
  "adding": 26872,
  "addle": 37382,
  "addock": 35509,
  "addon": 48078,
  "addons": 39996,
  "addr": 29851,
  "address": 21975,
  "addy": 13218,
  "ade": 671,
  "aded": 5286,
  "adel": 6959,
  "adelphia": 8273,
  "adem": 36920,
  "ademic": 49113,
  "aden": 40780,
  "adena": 38047,
  "adeon": 12424,
  "adequ": 16515,
  "ader": 5067,
  "aders": 9972,
  "ades": 2367,
  "adesh": 13410,
  "adh": 24411,
  "adi": 9189,
  "adia": 29523,
  "adian": 18425,
  "adiator": 33716,
  "adic": 23876,
  "adier": 38868,
  "adies": 50192,
  "adin": 17072,
  "ading": 4980,
  "adiq": 48687,
  "adish": 48563,
  "aditional": 27013,
  "adium": 6271,
  "adj": 41255,
  "adjust": 23032,
  "adjusted": 29117,
  "adle": 35166,
  "admin": 28482,
  "administ": 39081,
  "ado": 4533,
  "adobe": 36752,
  "adoes": 46368,
  "ador": 7079,
  "ados": 22484,
  "adow": 4584,
  "adows": 9797,
  "adr": 41909,
  "adra": 49456,
  "ads": 5643,
  "adult": 49922,
  "adv": 32225,
  "advant": 13461,
  "advert": 17904,
  "advertisement": 45876,
  "advertising": 34442,
  "ady": 4597,
  "ae": 3609,
  "aea": 44705,
  "aed": 8432,
  "aeda": 11641,
  "ael": 3010,
  "aeper": 28235,
  "aepernick": 28333,
  "aer": 25534,
  "aeus": 46052,
  "aez": 47246,
  "af": 1878,
  "afa": 28485,
  "afe": 8635,
  "afer": 34659,
  "afety": 27925,
  "aff": 2001,
  "affe": 21223,
  "affected": 43958,
  "affer": 31183,
  "affiliated": 46818,
  "affle": 30697,
  "affles": 48501,
  "afi": 19910,
  "afia": 22214,
  "afort": 24515,
  "aft": 14940,
  "after": 8499,
  "ag": 363,
  "aga": 8126,
  "again": 17776,
  "against": 32826,
  "agall": 44906,
  "agame": 46746,
  "agan": 7329,
  "aganda": 43589,
  "agar": 32452,
  "agara": 38415,
  "agascar": 44309,
  "agate": 37861,
  "age": 496,
  "aged": 1886,
  "ageddon": 33054,
  "agement": 5082,
  "agements": 38113,
  "agen": 11286,
  "agency": 40955,
  "agent": 25781,
  "agents": 49638,
  "ager": 3536,
  "agers": 10321,
  "ages": 1095,
  "agg": 9460,
  "agged": 14655,
  "agger": 7928,
  "agging": 16406,
  "aggressive": 49639,
  "agh": 10471,
  "aghan": 45109,
  "aghd": 16650,
  "agher": 30450,
  "aghetti": 35812,
  "agi": 18013,
  "agic": 9083,
  "agically": 39066,
  "agin": 23183,
  "agine": 12756,
  "aging": 3039,
  "agle": 19345,
  "agles": 37803,
  "agn": 4660,
  "agna": 48669,
  "agnar": 30475,
  "agne": 21080,
  "agnetic": 25145,
  "ago": 3839,
  "agog": 37300,
  "agogue": 32238,
  "agon": 1840,
  "agonal": 27923,
  "agonist": 15239,
  "agonists": 36764,
  "agons": 34765,
  "agos": 48215,
  "agra": 45429,
  "agram": 6713,
  "agraph": 6111,
  "agree": 49221,
  "ags": 3775,
  "agu": 11433,
  "ague": 2064,
  "agues": 6120,
  "agus": 31111,
  "agy": 46671,
  "ah": 993,
  "aha": 12236,
  "ahah": 36225,
  "ahan": 19210,
  "ahar": 37325,
  "ahead": 38204,
  "ahi": 32810,
  "ahime": 49997,
  "ahl": 15668,
  "ahn": 15386,
  "aho": 17108,
  "ahon": 30491,
  "ahoo": 12992,
  "ahs": 39095,
  "ahu": 12196,
  "ai": 1872,
  "aic": 18452,
  "aid": 1698,
  "aida": 30546,
  "aiden": 17538,
  "aido": 44354,
  "aign": 1784,
  "aii": 42648,
  "ail": 603,
  "aila": 39460,
  "ailability": 8994,
  "ailable": 1508,
  "ailand": 16188,
  "ailed": 6255,
  "ailing": 11608,
  "ails": 1768,
  "aily": 3079,
  "aim": 1385,
  "aiman": 47840,
  "aimon": 49438,
  "ain": 391,
  "aina": 42183,
  "aine": 5718,
  "ained": 1328,
  "ainer": 10613,
  "ainers": 50221,
  "aining": 1397,
  "ainment": 37091,
  "ains": 1299,
  "aint": 2913,
  "aintain": 32725,
  "ainted": 14215,
  "aints": 6003,
  "air": 958,
  "aird": 41620,
  "aire": 7626,
  "aired": 9820,
  "aires": 17693,
  "airo": 18131,
  "airs": 3468,
  "airy": 13021,
  "ais": 15152,
  "ait": 4548,
  "aith": 3921,
  "aito": 38995,
  "aj": 1228,
  "aja": 27792,
  "aji": 26436,
  "ajo": 34944,
  "ajor": 1518,
  "ak": 461,
  "aka": 8130,
  "akable": 29033,
  "ake": 539,
  "aked": 4335,
  "akedown": 25817,
  "aken": 1685,
  "akening": 18800,
  "akens": 31627,
  "aker": 3110,
  "akers": 3979,
  "akeru": 43246,
  "akery": 33684,
  "akes": 1124,
  "akespe": 20621,
  "akespeare": 20946,
  "akh": 11322,
  "aki": 8182,
  "akia": 21897,
  "akin": 27048,
  "aking": 868,
  "akings": 45665,
  "akis": 27321,
  "ako": 25496,
  "akov": 44715,
  "akra": 38004,
  "aks": 4730,
  "aku": 8719,
  "akura": 47754,
  "akuya": 29863,
  "aky": 15492,
  "al": 282,
  "ala": 6081,
  "alach": 33786,
  "alam": 44949,
  "alan": 25786,
  "albeit": 45781,
  "album": 40916,
  "alcohol": 42142,
  "ald": 1940,
  "alde": 35885,
  "aldehyde": 44895,
  "aldi": 37566,
  "aldo": 41476,
  "ale": 1000,
  "aleb": 32100,
  "aled": 3021,
  "aleigh": 30729,
  "aler": 36213,
  "alert": 44598,
  "ales": 2040,
  "aley": 16730,
  "alez": 22149,
  "alf": 1604,
  "alg": 14016,
  "algia": 47111,
  "ali": 7344,
  "alia": 9752,
  "alian": 7199,
  "alias": 26011,
  "aliation": 22885,
  "alid": 10751,
  "alien": 42690,
  "align": 31494,
  "aligned": 41634,
  "alin": 14414,
  "aline": 20663,
  "aling": 4272,
  "alion": 19275,
  "alions": 50022,
  "alis": 27315,
  "alist": 49845,
  "alities": 27969,
  "ality": 1483,
  "alk": 971,
  "alker": 20949,
  "alking": 18998,
  "alks": 23833,
  "alky": 18354,
  "alkyrie": 21316,
  "all": 439,
  "alla": 30315,
  "allah": 31840,
  "allas": 7826,
  "alle": 6765,
  "alled": 4262,
  "allel": 29363,
  "allery": 17022,
  "alli": 36546,
  "allic": 18196,
  "alling": 9221,
  "allion": 48332,
  "allo": 49457,
  "alloc": 32332,
  "allow": 12154,
  "allowed": 40845,
  "alloween": 50107,
  "allows": 47205,
  "alls": 5691,
  "ally": 453,
  "alm": 38182,
  "almost": 28177,
  "alo": 7335,
  "alog": 11794,
  "alogue": 30326,
  "alogy": 48909,
  "alon": 40755,
  "alone": 17749,
  "along": 24176,
  "alore": 40612,
  "alos": 41823,
  "alph": 17307,
  "alpha": 26591,
  "als": 874,
  "alsa": 32058,
  "alse": 2820,
  "alsh": 22114,
  "also": 14508,
  "alt": 2501,
  "alted": 29590,
  "alter": 47653,
  "altern": 33645,
  "alth": 1094,
  "although": 16670,
  "alties": 10355,
  "alty": 6017,
  "alus": 46781,
  "always": 33770,
  "aly": 3400,
  "alys": 26266,
  "alysed": 47557,
  "alyses": 43710,
  "alysis": 8767,
  "alyst": 21470,
  "am": 321,
  "ama": 1689,
  "amac": 11494,
  "amacare": 11724,
  "aman": 10546,
  "amar": 39236,
  "amara": 47848,
  "amaru": 46893,
  "amas": 17485,
  "amate": 36754,
  "amation": 14755,
  "amaz": 45983,
  "amazon": 33103,
  "amb": 4131,
  "amba": 31842,
  "amber": 7789,
  "ambers": 16368,
  "ambling": 15366,
  "ambo": 22651,
  "amboo": 27708,
  "amd": 28745,
  "ame": 480,
  "amed": 2434,
  "ameda": 49637,
  "amel": 17983,
  "ameless": 39942,
  "amen": 41763,
  "ament": 3263,
  "amental": 6860,
  "aments": 12604,
  "amer": 2382,
  "amera": 18144,
  "ameron": 41639,
  "ames": 1047,
  "ami": 6277,
  "amia": 49442,
  "amic": 18127,
  "amide": 37905,
  "amiliar": 19968,
  "amily": 5993,
  "amin": 5669,
  "amina": 18891,
  "amination": 24979,
  "amine": 9862,
  "aminer": 32086,
  "amines": 41047,
  "aming": 3723,
  "amins": 24937,
  "amiya": 38241,
  "aml": 43695,
  "amm": 6475,
  "ammad": 26035,
  "ammed": 10573,
  "ammers": 36846,
  "ammu": 49487,
  "ammy": 46736,
  "amn": 34684,
  "amo": 18811,
  "amon": 16487,
  "among": 35131,
  "amorph": 37670,
  "amoto": 25384,
  "amount": 17287,
  "amous": 10877,
  "amp": 696,
  "ampa": 13299,
  "amped": 13322,
  "amph": 28474,
  "amphetamine": 31262,
  "amping": 37843,
  "ampion": 6734,
  "ampions": 4350,
  "ampire": 13577,
  "ampires": 27933,
  "ample": 1403,
  "amples": 12629,
  "ampoo": 40239,
  "amps": 9430,
  "ampton": 23427,
  "ampunk": 46183,
  "ams": 4105,
  "amsung": 30136,
  "amura": 37324,
  "amus": 25509,
  "amy": 14814,
  "an": 272,
  "ana": 2271,
  "analy": 38200,
  "analysis": 20930,
  "anamo": 33524,
  "anan": 27870,
  "anas": 15991,
  "anasia": 45551,
  "anc": 1192,
  "anca": 42124,
  "ance": 590,
  "anced": 2903,
  "ancel": 21130,
  "ancer": 8250,
  "ancers": 20811,
  "ances": 1817,
  "anch": 3702,
  "anche": 6362,
  "anches": 12140,
  "anchester": 8911,
  "anchez": 20364,
  "ancial": 2783,
  "ancies": 16183,
  "ancing": 5077,
  "anco": 47699,
  "ancock": 37077,
  "ancouver": 10264,
  "ancy": 3883,
  "and": 392,
  "anda": 5282,
  "andal": 7642,
  "andals": 23819,
  "andan": 42509,
  "ande": 40004,
  "anded": 12249,
  "andel": 33134,
  "andem": 30025,
  "ander": 4066,
  "andering": 42454,
  "anders": 45070,
  "andestine": 35887,
  "andi": 26800,
  "anding": 27225,
  "andise": 18888,
  "ando": 25440,
  "andom": 3749,
  "andon": 5063,
  "andowski": 44391,
  "andr": 46273,
  "andra": 15918,
  "andre": 49078,
  "andro": 28092,
  "android": 19411,
  "ands": 1746,
  "andum": 25933,
  "andy": 10757,
  "ane": 1531,
  "aned": 22739,
  "aneers": 33547,
  "aneous": 11655,
  "aneously": 27683,
  "anes": 7305,
  "aney": 22297,
  "ang": 648,
  "anga": 16484,
  "angan": 37089,
  "ange": 858,
  "anged": 5102,
  "angel": 8368,
  "angelo": 46525,
  "anger": 2564,
  "angered": 19041,
  "angering": 49470,
  "angers": 6606,
  "anges": 6231,
  "angible": 39639,
  "anging": 4924,
  "angle": 9248,
  "angled": 22393,
  "angler": 49910,
  "angles": 27787,
  "angling": 27499,
  "ango": 14208,
  "angs": 27725,
  "angu": 2303,
  "anguage": 9000,
  "anguages": 33213,
  "anguard": 23521,
  "angular": 21413,
  "ani": 3216,
  "ania": 5411,
  "anian": 38336,
  "anic": 26277,
  "anical": 36684,
  "anie": 34166,
  "aniel": 6321,
  "anim": 11227,
  "animal": 41607,
  "animate": 45685,
  "animous": 45873,
  "aning": 7574,
  "anish": 7115,
  "anism": 48162,
  "anity": 19689,
  "anium": 15776,
  "ank": 962,
  "anka": 15927,
  "anke": 49200,
  "anked": 14076,
  "ankind": 28066,
  "anking": 15230,
  "anks": 2283,
  "anky": 39556,
  "anmar": 21708,
  "ann": 1236,
  "anna": 7697,
  "annabin": 43655,
  "annah": 25761,
  "anne": 21952,
  "anned": 3577,
  "annel": 4276,
  "annels": 8961,
  "anners": 15672,
  "anni": 31296,
  "annie": 42883,
  "annis": 45017,
  "annon": 8825,
  "annot": 34574,
  "announced": 43499,
  "anny": 7737,
  "ano": 5733,
  "anoia": 30661,
  "anol": 22012,
  "anon": 36902,
  "anooga": 42165,
  "anos": 40015,
  "another": 29214,
  "anova": 40993,
  "anqu": 26184,
  "ans": 504,
  "ansas": 6618,
  "anse": 40054,
  "ansen": 33807,
  "anship": 47086,
  "ansion": 5487,
  "ansk": 34738,
  "anski": 44978,
  "ansky": 49792,
  "ansom": 22011,
  "anson": 23103,
  "ansson": 44038,
  "answer": 41484,
  "answered": 31966,
  "ant": 415,
  "anta": 4910,
  "antage": 36403,
  "antam": 49653,
  "antasy": 34921,
  "ante": 12427,
  "anted": 4126,
  "antes": 39781,
  "anth": 29313,
  "antha": 32589,
  "anthrop": 22178,
  "anti": 17096,
  "antic": 5109,
  "antically": 31589,
  "anticipated": 45178,
  "antics": 29320,
  "antine": 29003,
  "anting": 20482,
  "antis": 20836,
  "antle": 16941,
  "antly": 3875,
  "anto": 14723,
  "antom": 11456,
  "anton": 23026,
  "antry": 21238,
  "ants": 1187,
  "anty": 46098,
  "antz": 46269,
  "anu": 42357,
  "anus": 41141,
  "anut": 20651,
  "anuts": 37555,
  "anwhile": 6710,
  "any": 1092,
  "anya": 34183,
  "anyahu": 15966,
  "anye": 23495,
  "anyl": 34816,
  "anyon": 21330,
  "anything": 49459,
  "anz": 35410,
  "anza": 35819,
  "ao": 5488,
  "aos": 7495,
  "ap": 499,
  "apa": 32678,
  "apache": 43073,
  "apan": 2674,
  "ape": 1758,
  "apeake": 49528,
  "aped": 5813,
  "apego": 40561,
  "aper": 2136,
  "apers": 5656,
  "apes": 7916,
  "apesh": 25490,
  "apeshifter": 29554,
  "apest": 35746,
  "aph": 6570,
  "aphael": 34889,
  "api": 15042,
  "aping": 9269,
  "apist": 41690,
  "apixel": 48633,
  "aple": 24052,
  "aples": 28624,
  "apo": 41817,
  "apolis": 11174,
  "apolog": 46407,
  "apon": 9184,
  "apons": 13486,
  "apor": 12687,
  "apore": 11656,
  "app": 1324,
  "appa": 20975,
  "apped": 6320,
  "append": 33295,
  "apper": 11463,
  "appers": 46629,
  "appiness": 42661,
  "apping": 5912,
  "appings": 39242,
  "apple": 18040,
  "application": 31438,
  "apply": 39014,
  "appointed": 32924,
  "appro": 21064,
  "appropri": 11488,
  "appropriate": 13335,
  "appropriately": 45175,
  "approved": 29137,
  "approximately": 47498,
  "apps": 18211,
  "appy": 7774,
  "aps": 1686,
  "apse": 7512,
  "apsed": 28361,
  "apses": 45903,
  "apt": 2373,
  "apter": 3429,
  "apters": 12126,
  "aptic": 32963,
  "aptop": 45007,
  "apult": 41387,
  "apy": 12826,
  "aq": 30188,
  "aqu": 36129,
  "aque": 18251,
  "aques": 46806,
  "aquin": 48734,
  "ar": 283,
  "ara": 3301,
  "arag": 29967,
  "arah": 23066,
  "arak": 30447,
  "aram": 41158,
  "aran": 19173,
  "arant": 4741,
  "arantine": 37996,
  "araoh": 33766,
  "arat": 34174,
  "arate": 30748,
  "aration": 10186,
  "arations": 24355,
  "arb": 38039,
  "arbon": 42084,
  "arc": 5605,
  "arcer": 17649,
  "arch": 998,
  "arching": 38270,
  "archive": 17474,
  "archives": 48814,
  "archment": 36767,
  "archs": 34592,
  "archy": 9282,
  "arcity": 32689,
  "ard": 446,
  "arde": 45093,
  "arded": 10676,
  "arden": 5872,
  "ardi": 22490,
  "arding": 13493,
  "ardless": 14694,
  "ardo": 13109,
  "ardon": 19917,
  "ards": 1371,
  "ardy": 39124,
  "are": 533,
  "area": 20337,
  "ared": 1144,
  "aredevil": 38281,
  "arel": 20318,
  "arella": 45494,
  "aren": 5757,
  "arent": 1580,
  "arenthood": 17117,
  "arently": 13773,
  "arer": 11258,
  "arers": 34231,
  "ares": 3565,
  "arest": 12423,
  "aret": 8984,
  "areth": 26659,
  "arette": 14758,
  "arettes": 13890,
  "aretz": 48338,
  "arez": 19655,
  "arf": 37595,
  "arg": 853,
  "arge": 1376,
  "arger": 32270,
  "arget": 7641,
  "argo": 9448,
  "argon": 37920,
  "args": 22046,
  "argument": 49140,
  "ari": 2743,
  "aria": 10312,
  "arial": 36098,
  "arian": 3699,
  "arians": 13517,
  "ariat": 21621,
  "arie": 49173,
  "aries": 3166,
  "arij": 39010,
  "arijuana": 42834,
  "arily": 3093,
  "arin": 17714,
  "arine": 34569,
  "aring": 1723,
  "ario": 4982,
  "arios": 13010,
  "arious": 27129,
  "aris": 20066,
  "arist": 34566,
  "arity": 6806,
  "arium": 17756,
  "arius": 19897,
  "ark": 668,
  "arkable": 45543,
  "arkin": 39027,
  "arks": 5558,
  "arl": 7063,
  "arlane": 49344,
  "arling": 30045,
  "arm": 1670,
  "arma": 10961,
  "armac": 32813,
  "armed": 12026,
  "arming": 18052,
  "armor": 40456,
  "arms": 8357,
  "arn": 1501,
  "arna": 28610,
  "arnaev": 42311,
  "arning": 4228,
  "aro": 12022,
  "aron": 8045,
  "aroo": 38049,
  "around": 14145,
  "arov": 42737,
  "arp": 5117,
  "arr": 3258,
  "arranted": 47940,
  "arrass": 9187,
  "array": 18747,
  "arre": 9624,
  "arrell": 47769,
  "arrett": 34878,
  "arrison": 22472,
  "arro": 34852,
  "arrow": 6018,
  "arry": 6532,
  "ars": 945,
  "arse": 17208,
  "arser": 28198,
  "arsh": 5406,
  "arsity": 45826,
  "arson": 12613,
  "art": 433,
  "arta": 34202,
  "arte": 32074,
  "arted": 19112,
  "arten": 23996,
  "arter": 2571,
  "arters": 6137,
  "arth": 11999,
  "arthed": 36370,
  "arthy": 18270,
  "article": 20205,
  "articles": 26845,
  "artifacts": 50179,
  "artisan": 19714,
  "artist": 49016,
  "artment": 1823,
  "artments": 32514,
  "artney": 41709,
  "arton": 41328,
  "arts": 5889,
  "arty": 25494,
  "artz": 13636,
  "aru": 11493,
  "arus": 20272,
  "ary": 560,
  "arya": 43898,
  "aryl": 36822,
  "aryn": 38621,
  "as": 292,
  "asa": 15462,
  "asaki": 33846,
  "asant": 8775,
  "asar": 42391,
  "asc": 3372,
  "asca": 42688,
  "ascade": 28966,
  "ascal": 27747,
  "ascar": 37740,
  "ascist": 31968,
  "ascript": 15961,
  "ascular": 14767,
  "ascus": 20275,
  "ase": 589,
  "ased": 839,
  "asel": 48038,
  "aser": 6005,
  "asers": 19865,
  "ases": 1386,
  "ash": 1077,
  "asha": 14715,
  "ashed": 5263,
  "asher": 31218,
  "ashes": 7465,
  "ashi": 12144,
  "ashing": 2140,
  "ashington": 2542,
  "ashion": 5880,
  "ashtra": 38535,
  "asi": 17053,
  "asia": 23218,
  "asin": 47337,
  "asing": 2313,
  "asio": 29831,
  "asion": 4247,
  "asionally": 31775,
  "asions": 39327,
  "asis": 17765,
  "asive": 17443,
  "ask": 2093,
  "aska": 8480,
  "asket": 11715,
  "asketball": 14575,
  "asking": 30463,
  "asks": 6791,
  "asley": 30705,
  "asm": 8597,
  "asma": 11797,
  "asms": 34432,
  "ason": 888,
  "asonable": 17994,
  "asonic": 30189,
  "asonry": 38950,
  "asons": 2812,
  "asp": 5126,
  "aspberry": 17653,
  "asper": 32981,
  "aspers": 49412,
  "aspx": 31740,
  "ass": 562,
  "assad": 30178,
  "assador": 10623,
  "assadors": 33429,
  "assault": 46635,
  "asse": 21612,
  "assed": 21390,
  "assemb": 34455,
  "assembled": 46826,
  "assembly": 41873,
  "asser": 24929,
  "assert": 30493,
  "asses": 13978,
  "assets": 19668,
  "assetsadobe": 41383,
  "assi": 46527,
  "assian": 46091,
  "assic": 31635,
  "assies": 46257,
  "assin": 44961,
  "assing": 19696,
  "assion": 11857,
  "assis": 20297,
  "assisted": 42191,
  "assium": 26663,
  "assment": 45312,
  "asso": 28372,
  "associated": 32852,
  "assuming": 32935,
  "assy": 11720,
  "ast": 459,
  "asta": 40197,
  "aste": 4594,
  "asted": 8992,
  "aster": 1603,
  "astered": 14054,
  "astern": 6470,
  "asters": 7060,
  "astery": 29310,
  "astic": 3477,
  "astical": 32044,
  "astically": 16607,
  "astics": 24232,
  "asting": 9222,
  "aston": 45966,
  "astrous": 20168,
  "asts": 5773,
  "asty": 7833,
  "asu": 27345,
  "asure": 5015,
  "asured": 34006,
  "asures": 13846,
  "asuring": 45925,
  "asury": 11579,
  "asus": 40895,
  "asy": 4107,
  "at": 265,
  "ata": 1045,
  "atable": 21156,
  "ataka": 48088,
  "atal": 10254,
  "atalie": 30951,
  "atan": 39036,
  "atana": 43777,
  "atar": 9459,
  "atari": 35554,
  "atars": 40193,
  "atch": 963,
  "atche": 24809,
  "atched": 14265,
  "atcher": 34734,
  "atches": 20981,
  "atchewan": 29736,
  "atching": 19775,
  "ate": 378,
  "atech": 40340,
  "ated": 515,
  "ateful": 11850,
  "ateg": 2397,
  "ategic": 47917,
  "ategor": 47467,
  "ategories": 26129,
  "ategory": 11606,
  "ategy": 4338,
  "atel": 25791,
  "atell": 7528,
  "atellite": 26493,
  "ately": 1286,
  "atem": 23900,
  "aten": 36686,
  "ater": 729,
  "ateral": 10534,
  "aterasu": 45335,
  "atered": 34190,
  "aterial": 2273,
  "atern": 9205,
  "aternal": 14744,
  "aternity": 17094,
  "aters": 8605,
  "ates": 689,
  "ateur": 15093,
  "ateurs": 45211,
  "atever": 3587,
  "atform": 3390,
  "ath": 776,
  "atha": 30921,
  "atham": 37520,
  "athan": 6696,
  "athe": 26221,
  "athed": 35932,
  "ather": 1032,
  "athered": 8638,
  "atherine": 15289,
  "athering": 25545,
  "athetic": 18874,
  "athi": 44202,
  "athing": 26927,
  "athlon": 50236,
  "athom": 32910,
  "athon": 12938,
  "aths": 33148,
  "athy": 10036,
  "ati": 7246,
  "atial": 34961,
  "atibility": 25901,
  "atible": 16873,
  "atic": 1512,
  "atical": 39056,
  "atically": 4142,
  "atican": 18245,
  "atics": 23372,
  "atile": 12610,
  "atility": 18486,
  "atin": 10680,
  "ating": 803,
  "atinum": 16881,
  "atio": 39485,
  "ation": 341,
  "ational": 864,
  "ationally": 15208,
  "ations": 602,
  "atis": 37749,
  "atisf": 17403,
  "atism": 26185,
  "ative": 876,
  "atively": 9404,
  "atives": 2929,
  "ativity": 22055,
  "atl": 25864,
  "atlantic": 43342,
  "atmeal": 45280,
  "ato": 5549,
  "atoes": 15048,
  "atography": 45501,
  "atom": 37696,
  "atomic": 47116,
  "aton": 13951,
  "atonin": 44248,
  "atoon": 23122,
  "ator": 1352,
  "atorial": 21592,
  "atories": 19854,
  "atorium": 30732,
  "ators": 2024,
  "atory": 2870,
  "atos": 35492,
  "atown": 41079,
  "atra": 26066,
  "atre": 10562,
  "atri": 26646,
  "atro": 47756,
  "atron": 23484,
  "ats": 1381,
  "atson": 13506,
  "atsu": 19231,
  "atsuki": 40063,
  "att": 1078,
  "atta": 25014,
  "attach": 47348,
  "attack": 20358,
  "attacks": 38458,
  "atted": 16898,
  "atten": 41769,
  "atter": 1436,
  "attered": 10228,
  "attering": 16475,
  "atters": 34387,
  "attery": 16296,
  "atti": 34891,
  "attle": 1999,
  "attled": 43535,
  "atto": 45807,
  "atton": 38680,
  "attr": 35226,
  "attribute": 42348,
  "atts": 30353,
  "atu": 33419,
  "atum": 21307,
  "atur": 2541,
  "atural": 2660,
  "aturally": 7436,
  "aturated": 30192,
  "aturation": 36921,
  "aturday": 3658,
  "aturdays": 39724,
  "ature": 1300,
  "atures": 6691,
  "atus": 7240,
  "atz": 27906,
  "au": 559,
  "auc": 14272,
  "aucas": 25205,
  "aucus": 16710,
  "aucuses": 38271,
  "aud": 3885,
  "auder": 29233,
  "audi": 31330,
  "audio": 24051,
  "auer": 16261,
  "aug": 7493,
  "auga": 44718,
  "augh": 1567,
  "aughed": 13726,
  "aughlin": 42730,
  "aughs": 19256,
  "aught": 3413,
  "aughter": 3637,
  "aughtered": 32734,
  "aughters": 13441,
  "aughty": 28496,
  "aukee": 15263,
  "aul": 2518,
  "auld": 30406,
  "auldron": 45637,
  "ault": 1721,
  "aults": 13185,
  "aum": 26043,
  "aun": 1942,
  "auna": 32837,
  "aunch": 11429,
  "aund": 14677,
  "aunder": 21118,
  "aundering": 23496,
  "aunders": 32818,
  "aunt": 12968,
  "aunted": 20227,
  "aunting": 20706,
  "auntlet": 32633,
  "auntlets": 39695,
  "aunts": 43981,
  "aur": 2899,
  "aura": 33830,
  "auri": 35190,
  "aurus": 22302,
  "aus": 8717,
  "ause": 682,
  "ausible": 17178,
  "aut": 2306,
  "auth": 18439,
  "authent": 41299,
  "author": 9800,
  "authored": 39351,
  "authorized": 19721,
  "authors": 41617,
  "autical": 37073,
  "aution": 32917,
  "autions": 28766,
  "auto": 23736,
  "automatic": 37800,
  "auts": 17712,
  "aux": 14644,
  "av": 615,
  "ava": 4170,
  "avage": 33757,
  "availability": 47274,
  "available": 15182,
  "aval": 9226,
  "avan": 12421,
  "avanaugh": 19872,
  "avascript": 16098,
  "ave": 1015,
  "aved": 9586,
  "avement": 44034,
  "aven": 4005,
  "aver": 8770,
  "average": 23913,
  "avering": 42610,
  "avers": 30400,
  "avery": 12447,
  "aves": 3080,
  "avez": 28851,
  "avi": 15820,
  "avia": 40543,
  "avid": 8490,
  "avier": 19492,
  "avin": 20637,
  "aving": 2703,
  "avior": 15759,
  "aviour": 37716,
  "avis": 23401,
  "avoid": 27080,
  "avor": 5570,
  "avorable": 32006,
  "avored": 48275,
  "avorite": 19227,
  "avour": 29023,
  "avy": 2830,
  "aw": 707,
  "awa": 6909,
  "awaited": 41742,
  "awan": 43004,
  "awar": 48841,
  "aware": 9685,
  "awareness": 47812,
  "awaru": 39008,
  "awatts": 46684,
  "away": 8272,
  "aways": 23949,
  "awed": 36825,
  "awei": 38247,
  "awi": 23368,
  "awk": 19301,
  "awks": 11890,
  "awn": 3832,
  "aws": 8356,
  "ax": 897,
  "axe": 38231,
  "axies": 25472,
  "axis": 22704,
  "axter": 40864,
  "axy": 6969,
  "ay": 323,
  "aya": 11729,
  "ayan": 22931,
  "aye": 48822,
  "ayed": 16548,
  "ayer": 2794,
  "ayers": 6962,
  "ayette": 27067,
  "aying": 8369,
  "aylor": 7167,
  "ayn": 49987,
  "ayne": 43906,
  "ays": 592,
  "ayson": 34907,
  "az": 1031,
  "aza": 7056,
  "azaar": 34485,
  "azaki": 32276,
  "azar": 29413,
  "azard": 26267,
  "aze": 6201,
  "azed": 13865,
  "azeera": 28535,
  "azel": 41319,
  "azer": 19178,
  "azes": 36096,
  "azi": 7761,
  "azine": 4994,
  "azines": 15742,
  "azing": 4070,
  "azo": 44299,
  "azon": 5168,
  "azor": 17725,
  "azy": 12582,
  "azz": 8101,
  "b": 65,
  "ba": 7012,
  "bable": 33460,
  "bably": 11921,
  "baby": 40252,
  "bach": 19496,
  "back": 1891,
  "backed": 17078,
  "backer": 49978,
  "background": 25249,
  "backs": 10146,
  "bad": 14774,
  "bag": 21454,
  "bage": 13866,
  "bags": 34005,
  "bah": 47041,
  "bal": 6893,
  "balance": 20427,
  "balanced": 27753,
  "ball": 1894,
  "balls": 21591,
  "ban": 3820,
  "band": 3903,
  "bands": 21397,
  "bane": 20235,
  "bang": 36668,
  "bank": 17796,
  "banks": 43558,
  "bar": 5657,
  "bara": 39389,
  "bard": 23024,
  "bare": 49382,
  "bars": 34046,
  "bart": 16575,
  "bas": 12093,
  "base": 8692,
  "based": 3106,
  "bash": 41757,
  "basic": 35487,
  "basketball": 21265,
  "bass": 42933,
  "bat": 8664,
  "batch": 43501,
  "bath": 37648,
  "bats": 50199,
  "battle": 38471,
  "baugh": 23768,
  "baum": 24738,
  "bay": 24406,
  "bb": 11848,
  "bc": 15630,
  "bd": 17457,
  "bda": 43444,
  "be": 1350,
  "beam": 40045,
  "bean": 14289,
  "beans": 44749,
  "bear": 33227,
  "beard": 39433,
  "bearing": 28655,
  "beat": 12945,
  "beaut": 40544,
  "bec": 9423,
  "because": 13893,
  "becca": 20627,
  "beck": 27343,
  "becue": 31927,
  "bed": 3077,
  "bedroom": 36269,
  "bee": 20963,
  "been": 47436,
  "beer": 42428,
  "bees": 41712,
  "before": 19052,
  "begin": 27471,
  "beh": 20709,
  "behavior": 46571,
  "behind": 42200,
  "being": 11873,
  "beit": 15357,
  "bek": 47083,
  "bel": 6667,
  "bell": 7923,
  "below": 35993,
  "belt": 37976,
  "ben": 11722,
  "bench": 26968,
  "bender": 45666,
  "bending": 49667,
  "benef": 36934,
  "benefit": 48649,
  "bent": 46119,
  "ber": 527,
  "bered": 9451,
  "berg": 3900,
  "berger": 21041,
  "berman": 34591,
  "bern": 33900,
  "bernatorial": 43660,
  "berra": 31358,
  "berries": 20853,
  "berry": 8396,
  "bers": 1213,
  "bert": 4835,
  "berto": 32371,
  "berus": 39192,
  "bery": 13001,
  "bes": 12636,
  "best": 13466,
  "bestos": 40651,
  "bet": 11181,
  "beta": 31361,
  "bett": 48138,
  "better": 27903,
  "between": 23395,
  "bey": 23454,
  "bf": 19881,
  "bg": 35904,
  "bh": 34369,
  "bi": 8482,
  "bia": 23339,
  "bial": 25200,
  "bian": 12210,
  "bians": 30071,
  "biased": 38002,
  "bid": 14065,
  "bidden": 37978,
  "bie": 12590,
  "bies": 29846,
  "big": 14261,
  "bike": 32256,
  "bil": 33473,
  "bill": 35546,
  "billion": 24540,
  "bilt": 34508,
  "bin": 8800,
  "binary": 39491,
  "bind": 21653,
  "binding": 30786,
  "bing": 4623,
  "biology": 43592,
  "bird": 16944,
  "birds": 32002,
  "birth": 24280,
  "bis": 41907,
  "bish": 31795,
  "bishop": 27832,
  "bit": 2545,
  "bitcoin": 35395,
  "bite": 37018,
  "bitious": 14228,
  "bits": 9895,
  "biz": 42189,
  "bj": 50007,
  "bl": 2436,
  "black": 13424,
  "blade": 22500,
  "blance": 42757,
  "blank": 27190,
  "blast": 39806,
  "ble": 903,
  "bleacher": 47975,
  "bled": 9342,
  "bledon": 49258,
  "blem": 11253,
  "blems": 22143,
  "bler": 43400,
  "blers": 43022,
  "bles": 7689,
  "bley": 43263,
  "blind": 27461,
  "bling": 11108,
  "block": 9967,
  "blocking": 41938,
  "blocks": 27372,
  "blog": 14036,
  "blogs": 49096,
  "blogspot": 35217,
  "blood": 18041,
  "blooded": 50132,
  "blow": 48619,
  "blown": 31290,
  "blue": 17585,
  "bly": 36874,
  "bm": 20475,
  "bn": 9374,
  "bnb": 31971,
  "bo": 2127,
  "boa": 48614,
  "board": 3526,
  "boarding": 27794,
  "boards": 12821,
  "boat": 24482,
  "boats": 46058,
  "bodied": 45190,
  "body": 2618,
  "bol": 28984,
  "bold": 36575,
  "bole": 45693,
  "bolt": 25593,
  "bomb": 27657,
  "bon": 4189,
  "bone": 15992,
  "bones": 35095,
  "bons": 23461,
  "book": 2070,
  "books": 12106,
  "bool": 30388,
  "boost": 39521,
  "boot": 18769,
  "bor": 2865,
  "border": 20192,
  "borg": 23297,
  "borgh": 49870,
  "born": 6286,
  "borne": 13555,
  "boro": 21513,
  "borough": 17913,
  "bors": 32289,
  "bos": 39565,
  "boss": 42820,
  "bot": 13645,
  "both": 16885,
  "bots": 42478,
  "bott": 10985,
  "bottom": 22487,
  "bound": 7784,
  "bour": 6084,
  "bourg": 24256,
  "bourne": 12544,
  "bow": 8176,
  "bowl": 36859,
  "bows": 25435,
  "box": 3524,
  "boxes": 29305,
  "boxing": 45471,
  "boy": 7081,
  "boys": 13202,
  "bp": 46583,
  "bps": 18799,
  "br": 1671,
  "bra": 16057,
  "brace": 46565,
  "brain": 27825,
  "brainer": 49334,
  "bral": 24427,
  "brance": 28031,
  "brand": 17938,
  "branded": 35559,
  "braska": 17088,
  "brate": 40804,
  "brates": 44835,
  "bre": 4679,
  "bread": 29573,
  "break": 9032,
  "breaker": 25766,
  "breakers": 49295,
  "breaking": 13395,
  "breaks": 30058,
  "bred": 36074,
  "breeding": 49705,
  "brew": 11269,
  "brid": 10236,
  "bridge": 9458,
  "brids": 40637,
  "bright": 29199,
  "bring": 48580,
  "bringer": 48046,
  "bringing": 35749,
  "bris": 15311,
  "bro": 7957,
  "broad": 36654,
  "broken": 25826,
  "brook": 19094,
  "brother": 37343,
  "brow": 25367,
  "brown": 33282,
  "browser": 40259,
  "brush": 32680,
  "bryce": 32524,
  "bs": 1443,
  "bsite": 12485,
  "bsp": 24145,
  "bt": 18347,
  "btn": 46118,
  "bu": 11110,
  "bub": 46176,
  "buck": 27041,
  "bucks": 18999,
  "budget": 37315,
  "buf": 29325,
  "buff": 36873,
  "buffer": 22252,
  "bug": 25456,
  "bugs": 32965,
  "build": 11249,
  "builder": 38272,
  "builders": 50034,
  "building": 16894,
  "built": 18780,
  "bul": 15065,
  "bull": 16308,
  "bum": 4435,
  "buquerque": 36461,
  "bur": 6236,
  "burg": 7423,
  "burgh": 9228,
  "burn": 10899,
  "burning": 44313,
  "burse": 21780,
  "burst": 31961,
  "bury": 10711,
  "bus": 10885,
  "bush": 50231,
  "business": 22680,
  "buster": 24899,
  "busters": 30181,
  "but": 4360,
  "butt": 43059,
  "button": 16539,
  "buy": 17846,
  "by": 1525,
  "bye": 16390,
  "byn": 14929,
  "bys": 48209,
  "byss": 15040,
  "byte": 26327,
  "byter": 36204,
  "bytes": 33661,
  "c": 66,
  "ca": 6888,
  "cache": 23870,
  "cade": 46395,
  "cair": 37155,
  "cake": 30560,
  "cakes": 37263,
  "cal": 9948,
  "cale": 38765,
  "caliber": 43288,
  "call": 13345,
  "callback": 47423,
  "called": 7174,
  "calling": 44714,
  "cam": 20991,
  "camera": 25695,
  "camp": 16544,
  "campaign": 35012,
  "campus": 43842,
  "can": 5171,
  "cancer": 48870,
  "cand": 46188,
  "cano": 35490,
  "canon": 49883,
  "cap": 11128,
  "capacity": 42404,
  "cape": 36435,
  "capital": 27544,
  "capitalist": 49970,
  "caps": 27979,
  "capt": 27144,
  "car": 7718,
  "carb": 35684,
  "carbon": 29255,
  "card": 9517,
  "cards": 27761,
  "care": 6651,
  "carry": 34993,
  "cars": 37993,
  "cart": 26674,
  "cas": 34004,
  "case": 7442,
  "cases": 33964,
  "cash": 30350,
  "cast": 2701,
  "caster": 17970,
  "casters": 26248,
  "casting": 19913,
  "castle": 18676,
  "casts": 40924,
  "cat": 9246,
  "catch": 40198,
  "catching": 50106,
  "category": 22872,
  "catentry": 39165,
  "cation": 30907,
  "cats": 24619,
  "cause": 25587,
  "cb": 21101,
  "cc": 535,
  "cca": 13227,
  "ccess": 1591,
  "cci": 35764,
  "ccoli": 34544,
  "ccording": 2941,
  "cd": 10210,
  "cdn": 32341,
  "ce": 344,
  "cean": 5829,
  "ceans": 19961,
  "ced": 771,
  "cedented": 12292,
  "cedes": 19285,
  "ceed": 2707,
  "ceivable": 48054,
  "ceive": 15164,
  "ceived": 6471,
  "ceiver": 39729,
  "cel": 5276,
  "cele": 49840,
  "celer": 7015,
  "cell": 3846,
  "cellaneous": 25673,
  "cellence": 19801,
  "cellent": 5666,
  "cells": 46342,
  "celona": 14308,
  "cember": 3273,
  "cemic": 40478,
  "cence": 43696,
  "cend": 15695,
  "cens": 42595,
  "cent": 1087,
  "center": 16159,
  "centered": 38050,
  "central": 31463,
  "centric": 28577,
  "century": 14792,
  "cephal": 43996,
  "cept": 984,
  "ception": 4516,
  "ceptions": 11755,
  "ceptive": 25867,
  "ceptor": 49492,
  "cer": 2189,
  "cern": 30903,
  "cerned": 49990,
  "cerning": 41981,
  "cerpt": 17040,
  "cers": 7999,
  "cert": 22583,
  "certain": 39239,
  "cery": 12757,
  "ces": 728,
  "cess": 919,
  "cession": 43914,
  "cessive": 45428,
  "cest": 9165,
  "cester": 33187,
  "cf": 12993,
  "cffff": 31727,
  "cffffcc": 31957,
  "cfg": 37581,
  "cgi": 37157,
  "ch": 354,
  "cha": 11693,
  "chain": 7983,
  "chains": 38861,
  "chair": 16337,
  "chairs": 49655,
  "chal": 38009,
  "chall": 36747,
  "cham": 49869,
  "chan": 3147,
  "chance": 39486,
  "change": 3803,
  "changed": 40985,
  "changes": 36653,
  "changing": 22954,
  "channel": 17620,
  "channelAvailability": 39757,
  "chant": 8907,
  "chanted": 28923,
  "chapter": 43582,
  "char": 10641,
  "character": 22769,
  "chard": 30215,
  "charg": 11121,
  "charge": 10136,
  "charged": 17200,
  "charges": 34948,
  "charging": 31498,
  "chart": 40926,
  "chat": 17006,
  "che": 2395,
  "cheat": 46799,
  "check": 9122,
  "checked": 26752,
  "checking": 41004,
  "checks": 42116,
  "ched": 1740,
  "chedel": 24015,
  "chel": 29232,
  "chell": 12398,
  "chem": 15245,
  "chemical": 31379,
  "chemist": 28899,
  "chemy": 26599,
  "chen": 6607,
  "chenko": 45059,
  "chens": 29937,
  "cheon": 40556,
  "cher": 2044,
  "chers": 3533,
  "chery": 31132,
  "ches": 2052,
  "chest": 46713,
  "chester": 35983,
  "chet": 20043,
  "chev": 49916,
  "chi": 11072,
  "chid": 28402,
  "chie": 3043,
  "chief": 17351,
  "chieve": 24957,
  "child": 9410,
  "children": 17197,
  "chin": 24658,
  "ching": 10813,
  "chini": 45045,
  "chio": 40900,
  "chip": 35902,
  "chlor": 36813,
  "chn": 1349,
  "chnology": 19587,
  "cho": 6679,
  "choes": 23001,
  "choice": 25541,
  "chool": 1251,
  "christ": 43533,
  "chrom": 28663,
  "chrome": 46659,
  "chron": 11413,
  "cht": 21474,
  "chu": 46417,
  "chuk": 46019,
  "church": 36964,
  "chwitz": 36297,
  "chy": 29658,
  "ci": 979,
  "cia": 33743,
  "cial": 2413,
  "cially": 2131,
  "ciating": 46136,
  "ciation": 17269,
  "cible": 37369,
  "cience": 4234,
  "cient": 3456,
  "cientious": 43037,
  "cients": 35611,
  "cies": 3171,
  "cific": 7790,
  "cig": 22683,
  "cigarette": 46040,
  "cigarettes": 32529,
  "cil": 2856,
  "cill": 20346,
  "cin": 17879,
  "cing": 2259,
  "cious": 4680,
  "cipl": 6671,
  "cipled": 41296,
  "ciples": 6418,
  "ciplinary": 29386,
  "cipline": 34647,
  "circ": 21170,
  "circle": 45597,
  "cise": 37561,
  "cised": 37168,
  "cision": 16005,
  "cit": 47992,
  "citizens": 46801,
  "city": 19205,
  "cium": 16910,
  "cius": 28599,
  "civil": 37636,
  "ck": 694,
  "cker": 15280,
  "cki": 49108,
  "cking": 44377,
  "cknow": 5319,
  "cknowled": 33165,
  "cko": 37549,
  "cks": 4657,
  "cl": 565,
  "clad": 29853,
  "claim": 6604,
  "claimed": 12795,
  "claimer": 17111,
  "clair": 27659,
  "clamation": 20931,
  "class": 4871,
  "classes": 37724,
  "classic": 49421,
  "classified": 31691,
  "clave": 44281,
  "claw": 43143,
  "cle": 2375,
  "clean": 27773,
  "clear": 20063,
  "cled": 20095,
  "cler": 22902,
  "clerosis": 31399,
  "cles": 5427,
  "cli": 44506,
  "click": 12976,
  "client": 16366,
  "cliffe": 33783,
  "climate": 42570,
  "cling": 8493,
  "clinical": 47367,
  "clinton": 37821,
  "clip": 15036,
  "clips": 31945,
  "clipse": 17043,
  "clock": 15750,
  "clone": 21018,
  "cloneembedreportprint": 30899,
  "close": 19836,
  "closed": 20225,
  "closure": 17966,
  "cloth": 44905,
  "cloud": 17721,
  "club": 18664,
  "clud": 758,
  "clude": 9152,
  "cluded": 10341,
  "cludes": 13955,
  "cluding": 6360,
  "clus": 2527,
  "clusion": 4717,
  "clusions": 11539,
  "clusive": 5731,
  "clusively": 44307,
  "cm": 11215,
  "cmd": 28758,
  "cmp": 48991,
  "cms": 46406,
  "cn": 31522,
  "co": 1073,
  "coal": 25140,
  "coat": 31434,
  "cock": 21517,
  "cod": 19815,
  "code": 8189,
  "coded": 40976,
  "codes": 40148,
  "coe": 49270,
  "cohol": 4857,
  "coin": 3630,
  "coins": 14624,
  "col": 4033,
  "cold": 36673,
  "coll": 26000,
  "collar": 37676,
  "collect": 33327,
  "collection": 43681,
  "college": 44107,
  "colm": 18414,
  "colo": 45745,
  "colonial": 49787,
  "color": 8043,
  "colored": 25717,
  "colour": 49903,
  "column": 28665,
  "com": 785,
  "comb": 24011,
  "combat": 39969,
  "combe": 49325,
  "come": 2958,
  "comed": 15128,
  "comes": 8988,
  "comfort": 21598,
  "coming": 4976,
  "comings": 30715,
  "comm": 9503,
  "command": 21812,
  "comment": 23893,
  "comments": 15944,
  "commerce": 27061,
  "commercial": 36313,
  "commit": 41509,
  "committee": 26799,
  "common": 11321,
  "commun": 10709,
  "communication": 32560,
  "communications": 20860,
  "community": 28158,
  "comp": 5589,
  "compan": 34390,
  "company": 39722,
  "compatible": 38532,
  "competitive": 46131,
  "compl": 23855,
  "complete": 20751,
  "completely": 46699,
  "complex": 41887,
  "compliance": 47587,
  "component": 42895,
  "computer": 33215,
  "con": 1102,
  "concept": 43169,
  "concert": 48415,
  "cond": 17561,
  "condition": 31448,
  "conduct": 36495,
  "cone": 49180,
  "conf": 10414,
  "conference": 41124,
  "confidence": 39745,
  "config": 11250,
  "confirmed": 36349,
  "cong": 36801,
  "coni": 45774,
  "conn": 37043,
  "connect": 8443,
  "connected": 15236,
  "connection": 38659,
  "conom": 1519,
  "cons": 5936,
  "conscious": 16796,
  "conserv": 38925,
  "conservancy": 41215,
  "conservative": 43218,
  "consider": 44353,
  "console": 41947,
  "const": 9979,
  "constitutional": 18789,
  "construct": 41571,
  "consumer": 49827,
  "consuming": 35873,
  "cont": 3642,
  "contact": 32057,
  "contained": 45964,
  "container": 34924,
  "containing": 38301,
  "content": 11299,
  "context": 22866,
  "contin": 18487,
  "continental": 35415,
  "continue": 43043,
  "contract": 28484,
  "control": 13716,
  "controlled": 14401,
  "controller": 36500,
  "conv": 42946,
  "cook": 27916,
  "cooked": 46591,
  "cookie": 44453,
  "cool": 24494,
  "coon": 20912,
  "coord": 37652,
  "cop": 22163,
  "copy": 30073,
  "cor": 10215,
  "core": 7295,
  "corn": 20772,
  "correct": 30283,
  "corruption": 46260,
  "cos": 6966,
  "cost": 15805,
  "cosystem": 12541,
  "cot": 25557,
  "cott": 14612,
  "could": 24089,
  "count": 9127,
  "counter": 24588,
  "country": 19315,
  "cour": 43220,
  "course": 17319,
  "court": 22230,
  "cover": 9631,
  "covered": 32111,
  "cow": 8232,
  "cox": 40359,
  "cp": 13155,
  "cpp": 20322,
  "cpu": 36166,
  "cr": 6098,
  "craft": 3323,
  "crafted": 39160,
  "crazy": 50112,
  "cre": 7513,
  "cream": 36277,
  "creat": 20123,
  "create": 17953,
  "created": 25598,
  "creation": 38793,
  "creator": 45382,
  "credit": 43082,
  "creen": 32060,
  "crete": 38669,
  "crew": 42276,
  "cribed": 32968,
  "crim": 50086,
  "crime": 28126,
  "criminal": 45955,
  "cript": 6519,
  "cription": 6820,
  "criptions": 24370,
  "crit": 22213,
  "critical": 34666,
  "cro": 19915,
  "croft": 36714,
  "crop": 31476,
  "cross": 19692,
  "crow": 47114,
  "cru": 32838,
  "cry": 20470,
  "crypt": 29609,
  "cs": 6359,
  "css": 25471,
  "csv": 40664,
  "ct": 310,
  "ctic": 11048,
  "ctica": 28914,
  "ction": 596,
  "ctions": 2733,
  "ctive": 14070,
  "ctl": 34168,
  "ctor": 2715,
  "ctors": 5217,
  "ctory": 25977,
  "ctr": 24087,
  "ctrl": 44755,
  "ctuary": 15258,
  "cture": 48715,
  "ctx": 49464,
  "cu": 27399,
  "cube": 40296,
  "cue": 15509,
  "cul": 3129,
  "cular": 10440,
  "culated": 49262,
  "culation": 14902,
  "cule": 23172,
  "cules": 13930,
  "culosis": 38767,
  "cult": 40820,
  "cultural": 30844,
  "culture": 25584,
  "culus": 17576,
  "cum": 36340,
  "cup": 25244,
  "cur": 22019,
  "currency": 34415,
  "current": 14421,
  "currently": 41745,
  "cus": 9042,
  "cussion": 36262,
  "custom": 23144,
  "cut": 8968,
  "cuts": 23779,
  "cutting": 29753,
  "cv": 33967,
  "cy": 948,
  "cycl": 15539,
  "cycle": 13696,
  "cycles": 32503,
  "cyclop": 22873,
  "cyclopedia": 25497,
  "cyl": 38801,
  "cz": 26691,
  "cÃ©": 32682,
  "d": 67,
  "dB": 36077,
  "dL": 45582,
  "da": 6814,
  "dad": 47984,
  "daily": 29468,
  "dain": 27162,
  "dal": 31748,
  "dale": 14597,
  "dam": 11043,
  "damage": 28735,
  "dan": 25604,
  "danger": 38537,
  "daq": 48539,
  "dar": 27455,
  "dark": 21953,
  "dash": 42460,
  "dat": 19608,
  "data": 7890,
  "database": 48806,
  "date": 4475,
  "dated": 8715,
  "dates": 19581,
  "dating": 38734,
  "daughter": 29642,
  "day": 820,
  "dayName": 45392,
  "days": 12545,
  "db": 9945,
  "dc": 17896,
  "dd": 1860,
  "dden": 4742,
  "dding": 33403,
  "dds": 33714,
  "de": 2934,
  "dead": 25124,
  "deal": 31769,
  "deals": 14302,
  "death": 22595,
  "deb": 11275,
  "debian": 24689,
  "debug": 24442,
  "dec": 12501,
  "deck": 35875,
  "decl": 32446,
  "ded": 9395,
  "deen": 39060,
  "deep": 22089,
  "def": 4299,
  "default": 12286,
  "defense": 19774,
  "define": 13086,
  "defined": 23211,
  "definition": 46758,
  "deg": 13500,
  "degree": 16863,
  "del": 12381,
  "delay": 40850,
  "delete": 33678,
  "dem": 9536,
  "demand": 28550,
  "democracy": 42017,
  "democratic": 41232,
  "demon": 26567,
  "den": 6559,
  "density": 43337,
  "dep": 10378,
  "depend": 45841,
  "dependent": 21186,
  "depending": 44023,
  "depth": 18053,
  "der": 1082,
  "derived": 34631,
  "des": 8906,
  "desc": 20147,
  "described": 34869,
  "description": 11213,
  "design": 26124,
  "designed": 30473,
  "desktop": 41375,
  "despite": 41081,
  "dest": 16520,
  "destroy": 41659,
  "destruct": 35678,
  "det": 15255,
  "detail": 49170,
  "details": 36604,
  "determination": 40869,
  "dev": 7959,
  "develop": 16244,
  "developed": 33082,
  "development": 31267,
  "device": 25202,
  "devices": 42034,
  "df": 7568,
  "dfx": 48753,
  "dh": 34985,
  "di": 10989,
  "diagn": 47356,
  "dial": 38969,
  "dict": 11600,
  "did": 20839,
  "didn": 45168,
  "die": 11979,
  "dies": 25990,
  "diff": 26069,
  "different": 39799,
  "dig": 12894,
  "digit": 27003,
  "digital": 34725,
  "digy": 41923,
  "dim": 27740,
  "dimension": 46156,
  "dimensional": 19577,
  "din": 25194,
  "dinand": 41993,
  "ding": 12083,
  "dir": 15908,
  "direct": 12942,
  "directed": 34762,
  "direction": 37295,
  "director": 35248,
  "directory": 34945,
  "dirty": 49075,
  "dis": 6381,
  "disable": 40223,
  "disabled": 47730,
  "disc": 15410,
  "disciplinary": 40625,
  "discrimination": 42723,
  "disk": 39531,
  "display": 13812,
  "displayText": 31536,
  "dist": 17080,
  "distance": 30246,
  "dit": 5266,
  "div": 7146,
  "division": 21426,
  "dj": 28241,
  "dk": 34388,
  "dl": 25404,
  "dll": 12736,
  "dm": 36020,
  "dn": 32656,
  "do": 4598,
  "doc": 15390,
  "docker": 45986,
  "docs": 31628,
  "doctor": 35580,
  "doctoral": 44064,
  "document": 22897,
  "documented": 47045,
  "does": 22437,
  "doesn": 45084,
  "dog": 9703,
  "dogs": 22242,
  "doi": 34023,
  "doing": 19631,
  "dollar": 22569,
  "dom": 3438,
  "domain": 27830,
  "dominated": 34475,
  "doms": 23686,
  "don": 9099,
  "donald": 40915,
  "done": 28060,
  "door": 9424,
  "doors": 19559,
  "dor": 40180,
  "dos": 37427,
  "dose": 34436,
  "dot": 26518,
  "double": 23352,
  "down": 2902,
  "download": 15002,
  "downs": 30371,
  "dozen": 44932,
  "dp": 26059,
  "dq": 49506,
  "dr": 7109,
  "dra": 32491,
  "draft": 35679,
  "dragon": 14844,
  "draw": 19334,
  "drawn": 41549,
  "dream": 25966,
  "dress": 49380,
  "dri": 7553,
  "drive": 19472,
  "driven": 15808,
  "driver": 26230,
  "drivers": 36702,
  "driving": 24255,
  "drm": 49007,
  "dro": 22285,
  "drop": 14781,
  "dropping": 37554,
  "drops": 49253,
  "drug": 30349,
  "dry": 39140,
  "ds": 9310,
  "dt": 28664,
  "du": 646,
  "duc": 6077,
  "ducers": 41213,
  "duct": 2359,
  "duction": 11124,
  "due": 23301,
  "duino": 24493,
  "dule": 5950,
  "dullah": 23969,
  "dump": 39455,
  "duration": 32257,
  "during": 42122,
  "dust": 48859,
  "duty": 26278,
  "dx": 34350,
  "dy": 9892,
  "dyl": 30360,
  "dylib": 31739,
  "e": 68,
  "ea": 18213,
  "each": 27379,
  "ead": 1329,
  "eah": 4617,
  "eal": 2287,
  "ealing": 26919,
  "ealous": 15746,
  "eals": 10621,
  "ean": 11025,
  "eanor": 17663,
  "ear": 451,
  "earable": 40816,
  "earance": 23435,
  "earances": 35630,
  "earch": 3679,
  "earcher": 50194,
  "earchers": 16604,
  "eared": 3380,
  "earing": 6648,
  "early": 11458,
  "earned": 39123,
  "ears": 4127,
  "earth": 16442,
  "eas": 30412,
  "east": 23316,
  "easy": 38171,
  "eat": 4098,
  "eating": 30041,
  "eatured": 20980,
  "eatures": 11585,
  "eaturing": 31347,
  "eb": 1765,
  "ebin": 23497,
  "ebook": 16497,
  "ebra": 37052,
  "ebted": 35895,
  "ebus": 33209,
  "ec": 721,
  "eca": 31047,
  "ecake": 46557,
  "ecast": 43299,
  "ecause": 3156,
  "ecd": 21142,
  "ech": 3055,
  "eches": 16672,
  "echo": 30328,
  "ecided": 35503,
  "eco": 47704,
  "econom": 13926,
  "economic": 17079,
  "ect": 478,
  "ectar": 44504,
  "ected": 11197,
  "ection": 3213,
  "ective": 13967,
  "ectomy": 42505,
  "ector": 9250,
  "ecycle": 47510,
  "ed": 276,
  "edIn": 20801,
  "eda": 18082,
  "edar": 44226,
  "eday": 23712,
  "edd": 6048,
  "edded": 47238,
  "eddy": 21874,
  "ede": 18654,
  "eded": 15395,
  "eden": 31829,
  "eder": 5702,
  "ederal": 2110,
  "ederation": 9748,
  "edes": 37507,
  "edge": 14907,
  "edged": 48916,
  "edi": 13740,
  "edia": 5507,
  "edience": 20826,
  "edient": 35279,
  "edin": 27152,
  "eding": 8228,
  "edit": 19312,
  "edited": 42131,
  "edition": 28736,
  "editor": 35352,
  "edly": 49288,
  "edo": 24757,
  "edom": 3836,
  "eds": 5379,
  "edu": 15532,
  "educ": 18123,
  "educated": 27317,
  "education": 40796,
  "edy": 4716,
  "ee": 1453,
  "eed": 2308,
  "eeds": 39642,
  "eeee": 41591,
  "eeks": 32201,
  "eele": 26213,
  "eely": 45269,
  "eem": 13761,
  "een": 6429,
  "eenth": 28117,
  "eeper": 41278,
  "eer": 28153,
  "eering": 48066,
  "eers": 47619,
  "ees": 2841,
  "eez": 33105,
  "ef": 891,
  "efe": 22521,
  "efeated": 36807,
  "efer": 41027,
  "eff": 14822,
  "effect": 10760,
  "effective": 16803,
  "effects": 34435,
  "effic": 24531,
  "efficiency": 45888,
  "efficient": 16814,
  "efficients": 41945,
  "efined": 18156,
  "eful": 13839,
  "efully": 7549,
  "eg": 1533,
  "ega": 26470,
  "egal": 39839,
  "eger": 11893,
  "egg": 33856,
  "egu": 15703,
  "eh": 17231,
  "ei": 20295,
  "eight": 26022,
  "either": 31336,
  "ek": 988,
  "eka": 38001,
  "eker": 28233,
  "eki": 39548,
  "eking": 18754,
  "eks": 2573,
  "el": 417,
  "ela": 10304,
  "elaide": 25078,
  "eland": 8822,
  "elcome": 9571,
  "ele": 11129,
  "elect": 9509,
  "elected": 28604,
  "election": 14300,
  "electric": 31067,
  "eled": 18449,
  "element": 30854,
  "eless": 5321,
  "elf": 7046,
  "elfare": 27122,
  "elfth": 44659,
  "eli": 43733,
  "elia": 25418,
  "elight": 49984,
  "eligible": 31595,
  "elin": 27176,
  "eline": 4470,
  "elines": 20655,
  "eling": 10809,
  "elist": 46331,
  "ell": 695,
  "ella": 12627,
  "ellar": 14203,
  "ellation": 28828,
  "elle": 13485,
  "ellect": 6879,
  "ellectual": 29706,
  "elled": 11978,
  "ellen": 40635,
  "eller": 12368,
  "ellery": 41800,
  "elli": 23225,
  "ellig": 2976,
  "elligence": 3480,
  "elligent": 32940,
  "elling": 9417,
  "ello": 11109,
  "ellow": 5037,
  "ells": 19187,
  "elly": 6148,
  "elman": 32370,
  "eln": 45542,
  "elo": 22126,
  "elong": 21537,
  "elope": 47329,
  "els": 1424,
  "else": 17772,
  "elsen": 25328,
  "elsh": 21564,
  "elsius": 32495,
  "elson": 10151,
  "elt": 2120,
  "elta": 12514,
  "elve": 9954,
  "elvet": 32667,
  "em": 368,
  "ema": 19687,
  "emade": 21398,
  "email": 12888,
  "emaker": 32174,
  "emale": 10144,
  "eman": 8463,
  "emark": 47626,
  "emate": 47686,
  "emb": 24419,
  "embed": 20521,
  "embedreportprint": 30898,
  "ember": 1491,
  "eme": 34755,
  "emed": 9006,
  "emen": 8952,
  "ement": 972,
  "ements": 3196,
  "emer": 24677,
  "emet": 19261,
  "emetery": 19785,
  "emi": 43967,
  "emia": 22859,
  "emic": 5314,
  "emies": 5090,
  "emin": 14857,
  "eming": 46564,
  "emis": 30561,
  "emn": 37705,
  "emo": 41903,
  "emon": 7966,
  "emonic": 50016,
  "emonium": 33044,
  "emort": 24466,
  "emouth": 46880,
  "emp": 45787,
  "emphasis": 36663,
  "empl": 18856,
  "employ": 7033,
  "employed": 36266,
  "employment": 28812,
  "emporary": 33080,
  "empt": 1791,
  "emption": 11221,
  "empty": 28920,
  "ems": 5232,
  "emy": 3065,
  "en": 268,
  "ena": 8107,
  "enable": 21633,
  "enabled": 25616,
  "ename": 12453,
  "enance": 36368,
  "enaries": 30216,
  "enario": 39055,
  "enary": 21629,
  "enberg": 23140,
  "enburg": 37036,
  "enc": 12685,
  "ence": 594,
  "enced": 5864,
  "encer": 12137,
  "encers": 42288,
  "ences": 3007,
  "ench": 24421,
  "encia": 29634,
  "encies": 3976,
  "encing": 9532,
  "encrypted": 43628,
  "ency": 1387,
  "end": 437,
  "enda": 7438,
  "endale": 41147,
  "endant": 23048,
  "endants": 30841,
  "endar": 9239,
  "endars": 44942,
  "endas": 35624,
  "ende": 38396,
  "ended": 1631,
  "ender": 2194,
  "endered": 30398,
  "enders": 7338,
  "endez": 41913,
  "endi": 43109,
  "endiary": 43034,
  "endif": 32088,
  "ending": 1571,
  "endish": 48442,
  "endium": 49811,
  "endix": 19573,
  "endment": 5904,
  "endo": 31110,
  "endon": 43153,
  "endor": 18738,
  "endra": 48286,
  "ends": 2412,
  "endum": 43755,
  "ene": 1734,
  "ened": 2945,
  "eneg": 46495,
  "enegger": 44028,
  "enei": 46009,
  "enemy": 46970,
  "ener": 877,
  "energy": 22554,
  "eners": 36014,
  "enery": 24156,
  "enes": 18719,
  "eness": 9449,
  "enez": 11437,
  "enezuel": 12596,
  "enf": 33701,
  "enforcement": 44976,
  "enfranch": 39827,
  "eng": 1516,
  "enge": 3540,
  "engeance": 21364,
  "enged": 47422,
  "enger": 6540,
  "engers": 9302,
  "enges": 34120,
  "engine": 18392,
  "engineering": 40321,
  "english": 39126,
  "ength": 3286,
  "engu": 13561,
  "enh": 16550,
  "enhagen": 30347,
  "eni": 43850,
  "enic": 35866,
  "ening": 3101,
  "enium": 47477,
  "enko": 32720,
  "enment": 23242,
  "enn": 1697,
  "enna": 13713,
  "enne": 29727,
  "ennes": 42573,
  "ennett": 48151,
  "ennial": 27779,
  "ennis": 10679,
  "enny": 11870,
  "eno": 23397,
  "enos": 28380,
  "enough": 48229,
  "ens": 641,
  "ensable": 33447,
  "ensation": 25742,
  "ense": 1072,
  "ensed": 15385,
  "ensen": 18756,
  "enser": 45268,
  "enses": 4541,
  "ensible": 27339,
  "ensibly": 28508,
  "ensical": 46165,
  "ensing": 26426,
  "ension": 3004,
  "ensional": 37176,
  "ensions": 5736,
  "ensis": 37834,
  "ensitive": 18464,
  "ensitivity": 40545,
  "ensity": 6377,
  "ensive": 2021,
  "enson": 19069,
  "ensor": 22854,
  "enstein": 37975,
  "ensual": 31406,
  "ensus": 7314,
  "ent": 298,
  "enta": 29188,
  "ental": 2470,
  "entanyl": 41455,
  "entary": 48648,
  "ente": 21872,
  "ented": 4714,
  "enter": 9255,
  "enth": 7944,
  "enthal": 34728,
  "ential": 1843,
  "entially": 3746,
  "entials": 14817,
  "entimes": 43598,
  "entin": 31371,
  "enting": 36589,
  "ention": 1463,
  "entious": 43787,
  "entity": 26858,
  "entle": 8651,
  "ently": 1473,
  "ento": 50217,
  "enton": 26673,
  "entric": 22317,
  "entry": 13000,
  "ents": 658,
  "enture": 36697,
  "enty": 3787,
  "enum": 44709,
  "env": 24330,
  "environment": 38986,
  "eny": 28558,
  "enz": 19471,
  "enza": 23674,
  "enzie": 26389,
  "eon": 23277,
  "eor": 13492,
  "eous": 15303,
  "ep": 538,
  "epad": 47852,
  "epend": 2690,
  "ependence": 15091,
  "ependent": 8682,
  "eper": 5723,
  "eph": 27446,
  "eping": 7213,
  "episode": 38668,
  "eport": 45813,
  "eps": 25386,
  "ept": 19598,
  "eq": 27363,
  "equ": 4853,
  "equal": 40496,
  "equality": 48203,
  "equipped": 40617,
  "er": 263,
  "era": 8607,
  "eral": 1691,
  "erala": 33314,
  "erald": 12573,
  "erate": 21620,
  "erb": 23552,
  "erc": 2798,
  "ercise": 23697,
  "erd": 45744,
  "ere": 567,
  "ered": 1068,
  "eredith": 36897,
  "eree": 45316,
  "erek": 18238,
  "erella": 36648,
  "eren": 14226,
  "erence": 1945,
  "erences": 4972,
  "erenn": 31915,
  "erent": 9100,
  "erential": 33369,
  "ereo": 32934,
  "erer": 11882,
  "erers": 19288,
  "erest": 1260,
  "eret": 31229,
  "erey": 48023,
  "erg": 6422,
  "ergic": 19793,
  "ergus": 13607,
  "erguson": 14168,
  "ergy": 26079,
  "eri": 33442,
  "eria": 5142,
  "erial": 48499,
  "eric": 35626,
  "erick": 41556,
  "erie": 18287,
  "eries": 10640,
  "ering": 1586,
  "erion": 28019,
  "erity": 32821,
  "erk": 9587,
  "erker": 35779,
  "erm": 7780,
  "erman": 2224,
  "ermanent": 30312,
  "ermott": 46187,
  "ern": 1142,
  "ernal": 35220,
  "ername": 13292,
  "ernand": 13023,
  "ernandez": 18092,
  "ernaut": 37879,
  "ernel": 7948,
  "ernels": 44930,
  "erness": 17447,
  "erning": 8917,
  "erno": 24100,
  "ero": 3529,
  "eros": 27498,
  "erous": 48411,
  "err": 8056,
  "erred": 17436,
  "errilla": 31859,
  "error": 18224,
  "errors": 48277,
  "erry": 6996,
  "ers": 364,
  "ersed": 20204,
  "ersen": 46516,
  "ership": 49437,
  "ersion": 6900,
  "ersive": 24469,
  "erson": 882,
  "ert": 861,
  "ertain": 1425,
  "ertation": 42245,
  "ertility": 27651,
  "erto": 13806,
  "ertodd": 36481,
  "erton": 29111,
  "erv": 712,
  "erva": 32775,
  "ervation": 13208,
  "ervative": 22003,
  "ervatives": 35291,
  "erve": 3760,
  "erved": 8520,
  "erver": 18497,
  "erves": 11184,
  "erville": 33487,
  "erving": 14344,
  "ery": 1924,
  "eryl": 44886,
  "es": 274,
  "esa": 49183,
  "esame": 34038,
  "esan": 42890,
  "esar": 18964,
  "esc": 3798,
  "escal": 47647,
  "escap": 50141,
  "escape": 41915,
  "escent": 45470,
  "escription": 7260,
  "ese": 2771,
  "esh": 5069,
  "esi": 46551,
  "esian": 35610,
  "esides": 11788,
  "esis": 9339,
  "esity": 11924,
  "esley": 49048,
  "esm": 45798,
  "esome": 5927,
  "eson": 42038,
  "esp": 9774,
  "especially": 16480,
  "espie": 42120,
  "esque": 28939,
  "ess": 408,
  "essa": 21411,
  "essage": 7589,
  "esse": 35270,
  "essed": 6676,
  "essee": 10702,
  "essel": 7878,
  "essen": 44483,
  "essential": 31195,
  "essert": 20335,
  "esses": 44667,
  "essim": 30265,
  "essing": 27289,
  "ession": 2521,
  "essional": 12743,
  "essions": 6202,
  "essler": 33730,
  "essment": 21687,
  "esson": 39670,
  "essor": 5987,
  "essors": 23295,
  "est": 395,
  "esta": 18059,
  "establish": 40037,
  "established": 27718,
  "establishment": 44390,
  "estamp": 27823,
  "estate": 44146,
  "estation": 27364,
  "este": 29872,
  "estead": 37897,
  "ested": 7287,
  "esteem": 31869,
  "ester": 7834,
  "estern": 3330,
  "esters": 8586,
  "esthes": 29678,
  "esthesia": 34811,
  "esthetic": 37531,
  "estial": 21711,
  "estic": 4699,
  "estinal": 34284,
  "estine": 27374,
  "esting": 37761,
  "estival": 6743,
  "eston": 19115,
  "estone": 13631,
  "estones": 30637,
  "estro": 47692,
  "ests": 3558,
  "esty": 9673,
  "estyle": 10992,
  "estyles": 42530,
  "esville": 19641,
  "esy": 9259,
  "et": 316,
  "eta": 17167,
  "etary": 8527,
  "etc": 14784,
  "etch": 7569,
  "etchup": 47132,
  "ete": 14471,
  "eteen": 34026,
  "eteenth": 26425,
  "eter": 2357,
  "eteria": 39622,
  "etermin": 13221,
  "etermination": 29610,
  "etermined": 23444,
  "eters": 7307,
  "eth": 2788,
  "ethe": 10567,
  "etheless": 12845,
  "ether": 6750,
  "etheus": 36916,
  "ethical": 32949,
  "ethnic": 38546,
  "ethy": 33077,
  "ethyl": 21610,
  "ethyst": 44166,
  "etic": 5139,
  "etically": 16877,
  "etics": 14596,
  "eties": 31638,
  "etime": 8079,
  "etimes": 46874,
  "eting": 13629,
  "etition": 15620,
  "etitive": 17295,
  "eto": 27206,
  "eton": 18483,
  "etooth": 16271,
  "etr": 21879,
  "etric": 19482,
  "etrical": 34546,
  "etry": 11973,
  "ets": 1039,
  "etsk": 29515,
  "etsu": 30470,
  "etsy": 34877,
  "ett": 3087,
  "etta": 15253,
  "ette": 5857,
  "ettel": 47417,
  "etter": 40088,
  "ettes": 23014,
  "etti": 24851,
  "etting": 35463,
  "ettings": 12374,
  "ettle": 23570,
  "ettlement": 27331,
  "etts": 9357,
  "etus": 29158,
  "ety": 2963,
  "etz": 23773,
  "eu": 12496,
  "eur": 23365,
  "euro": 44252,
  "eus": 27650,
  "ev": 1990,
  "eva": 48855,
  "eval": 18206,
  "evaluate": 49786,
  "eve": 44655,
  "even": 10197,
  "event": 15596,
  "events": 31534,
  "ever": 964,
  "everal": 8438,
  "every": 16833,
  "everyone": 47057,
  "everything": 37814,
  "evidence": 46817,
  "evil": 23542,
  "evin": 6830,
  "ew": 413,
  "eware": 29725,
  "ewater": 21422,
  "eway": 16172,
  "eways": 43613,
  "ewitness": 28588,
  "ework": 6433,
  "eworks": 19653,
  "eworld": 38136,
  "eworthy": 25969,
  "ews": 15515,
  "ewski": 46151,
  "ex": 1069,
  "examination": 47779,
  "example": 20688,
  "exc": 41194,
  "except": 16341,
  "excluding": 42218,
  "exclusive": 41195,
  "exe": 13499,
  "exec": 18558,
  "execute": 41049,
  "exempt": 42679,
  "exist": 38476,
  "existence": 41084,
  "existent": 32786,
  "existing": 25687,
  "exit": 37023,
  "exp": 11201,
  "expected": 40319,
  "expensive": 22031,
  "exper": 23100,
  "expl": 20676,
  "export": 39344,
  "expr": 31937,
  "express": 42712,
  "expression": 38011,
  "ext": 2302,
  "external": 22615,
  "externalActionCode": 31576,
  "extra": 26086,
  "extreme": 29896,
  "extremely": 41073,
  "ey": 2959,
  "eye": 25379,
  "eyed": 18834,
  "eyes": 48418,
  "ez": 8471,
  "ezvous": 50063,
  "f": 69,
  "fa": 13331,
  "fab": 36434,
  "fac": 38942,
  "face": 2550,
  "facebook": 19024,
  "faced": 24903,
  "faces": 32186,
  "facing": 29532,
  "fact": 22584,
  "factor": 31412,
  "facts": 37473,
  "fail": 32165,
  "failed": 47904,
  "fair": 22043,
  "faith": 41751,
  "fake": 30706,
  "fal": 42932,
  "fall": 7207,
  "falls": 23348,
  "false": 9562,
  "fam": 44769,
  "family": 17989,
  "famous": 45143,
  "fan": 24408,
  "far": 16370,
  "fare": 9496,
  "farious": 41504,
  "farm": 43323,
  "fascist": 46928,
  "fashion": 25265,
  "fashioned": 28776,
  "fast": 7217,
  "fat": 17359,
  "father": 11358,
  "favorite": 35200,
  "fax": 23560,
  "fb": 21855,
  "fc": 16072,
  "fd": 16344,
  "fe": 5036,
  "feat": 27594,
  "feature": 30053,
  "features": 40890,
  "fect": 2309,
  "fecture": 36637,
  "fed": 19082,
  "fee": 39071,
  "feed": 12363,
  "feeding": 22824,
  "feel": 36410,
  "feet": 39690,
  "feld": 16265,
  "fell": 23299,
  "felt": 31985,
  "female": 24724,
  "femin": 33594,
  "fen": 41037,
  "fer": 2232,
  "ference": 4288,
  "ferred": 18186,
  "fest": 23411,
  "fet": 34045,
  "fetched": 50012,
  "few": 32146,
  "ff": 487,
  "ffe": 16658,
  "ffect": 4812,
  "ffee": 5853,
  "ffen": 46985,
  "ffer": 36761,
  "fff": 20972,
  "ffff": 12927,
  "ffic": 2108,
  "fficiency": 35590,
  "fficient": 5632,
  "ffield": 31374,
  "ffiti": 25198,
  "fg": 40616,
  "fi": 12463,
  "fiction": 24046,
  "field": 3245,
  "fields": 25747,
  "fif": 32041,
  "fifth": 43556,
  "fig": 5647,
  "fight": 15481,
  "fighter": 24733,
  "fighters": 17114,
  "fighting": 26594,
  "fights": 50121,
  "figure": 26875,
  "figured": 46296,
  "fil": 10379,
  "file": 7753,
  "filename": 34345,
  "files": 16624,
  "fill": 20797,
  "filled": 20286,
  "film": 26240,
  "filter": 24455,
  "fin": 15643,
  "final": 20311,
  "finals": 32089,
  "financial": 46921,
  "find": 19796,
  "finder": 22805,
  "finding": 41070,
  "fine": 38125,
  "fing": 28825,
  "finger": 35461,
  "finished": 43952,
  "fire": 6495,
  "fired": 26803,
  "fires": 27312,
  "first": 11085,
  "fish": 11084,
  "fit": 11147,
  "fits": 21013,
  "fitted": 38631,
  "fitting": 32232,
  "five": 13261,
  "fix": 13049,
  "fixed": 34021,
  "fixes": 42624,
  "fl": 2704,
  "flag": 32109,
  "flags": 33152,
  "flake": 47597,
  "flame": 49621,
  "flash": 34167,
  "flat": 38568,
  "flation": 33521,
  "fle": 27919,
  "fledged": 45223,
  "fleet": 33559,
  "flex": 32880,
  "flies": 27959,
  "flight": 22560,
  "flix": 10046,
  "flo": 48679,
  "float": 22468,
  "floor": 28300,
  "flow": 11125,
  "flower": 25547,
  "flows": 44041,
  "flu": 35522,
  "flush": 25925,
  "fly": 12254,
  "flying": 45928,
  "fm": 38353,
  "fman": 35826,
  "fml": 38122,
  "fn": 22184,
  "fo": 6513,
  "focus": 37635,
  "focused": 18143,
  "fol": 9062,
  "fold": 11379,
  "folder": 43551,
  "folio": 13652,
  "folios": 45242,
  "folk": 19956,
  "follow": 27780,
  "font": 10331,
  "foo": 21943,
  "food": 19425,
  "foot": 5898,
  "football": 15914,
  "footed": 43127,
  "for": 1640,
  "force": 3174,
  "forced": 12072,
  "forcement": 13442,
  "forcer": 45515,
  "forces": 27087,
  "forcing": 18766,
  "ford": 3841,
  "fore": 754,
  "foreign": 38823,
  "foreseen": 44952,
  "forest": 29623,
  "forestation": 41570,
  "forge": 30293,
  "fork": 32523,
  "form": 687,
  "formance": 10367,
  "format": 18982,
  "formation": 1161,
  "formed": 12214,
  "former": 16354,
  "formerly": 36234,
  "forming": 15464,
  "forms": 23914,
  "fort": 3319,
  "fortable": 12065,
  "forth": 25718,
  "forts": 47378,
  "fortunately": 6668,
  "fortune": 37359,
  "forum": 27302,
  "forums": 37141,
  "forward": 11813,
  "found": 9275,
  "foundation": 42526,
  "founded": 27060,
  "founder": 15454,
  "foundland": 42030,
  "four": 14337,
  "fourth": 49393,
  "fox": 12792,
  "fp": 46428,
  "fps": 29647,
  "fr": 8310,
  "frac": 31944,
  "fram": 19298,
  "frame": 14535,
  "frames": 37805,
  "framework": 30604,
  "fre": 19503,
  "fred": 39193,
  "free": 5787,
  "freedom": 41295,
  "frequency": 35324,
  "fresh": 48797,
  "frey": 37425,
  "fried": 25520,
  "friend": 6726,
  "friendly": 13120,
  "friends": 36154,
  "frog": 49956,
  "from": 6738,
  "front": 8534,
  "fruit": 34711,
  "fs": 9501,
  "ft": 701,
  "ften": 14785,
  "fter": 637,
  "fters": 47131,
  "ftime": 31387,
  "fts": 35594,
  "fty": 19628,
  "fu": 20942,
  "fuck": 31699,
  "fuel": 25802,
  "ful": 913,
  "full": 12853,
  "fully": 2759,
  "fulness": 15538,
  "fun": 12543,
  "func": 20786,
  "function": 8818,
  "functional": 45124,
  "fund": 10990,
  "funded": 18246,
  "funding": 25032,
  "fur": 38916,
  "furt": 29205,
  "fusc": 37695,
  "future": 37443,
  "fw": 44482,
  "fx": 21373,
  "fy": 24928,
  "g": 70,
  "ga": 4908,
  "gaard": 36232,
  "gado": 50054,
  "gae": 25002,
  "gage": 10502,
  "gain": 48544,
  "gal": 13528,
  "galitarian": 39907,
  "gall": 39580,
  "gallery": 24460,
  "gam": 28483,
  "game": 6057,
  "gamer": 36515,
  "games": 19966,
  "gaming": 48616,
  "gan": 1030,
  "gang": 28284,
  "gans": 39352,
  "gap": 43554,
  "gar": 4563,
  "gard": 19977,
  "gars": 25821,
  "gart": 41651,
  "gary": 14849,
  "gas": 22649,
  "gat": 41268,
  "gate": 10494,
  "gay": 22744,
  "gb": 22296,
  "gc": 36484,
  "gd": 21287,
  "gdala": 40420,
  "ge": 469,
  "geant": 30205,
  "gear": 31763,
  "gebra": 29230,
  "ged": 2004,
  "gee": 29622,
  "geist": 49782,
  "gel": 25280,
  "gem": 24090,
  "gement": 16025,
  "gements": 43547,
  "gemony": 38953,
  "gen": 5235,
  "gence": 12745,
  "gencies": 33333,
  "gency": 4949,
  "gender": 8388,
  "gener": 8612,
  "general": 24622,
  "generated": 27568,
  "generation": 20158,
  "generic": 41357,
  "genic": 38516,
  "genre": 35850,
  "gent": 6783,
  "gently": 34727,
  "geon": 6281,
  "geoning": 31614,
  "geons": 16297,
  "ger": 1362,
  "gerald": 26941,
  "gered": 10446,
  "geries": 30230,
  "gers": 5355,
  "gery": 7076,
  "ges": 3212,
  "gest": 3495,
  "get": 1136,
  "getic": 24321,
  "gets": 11407,
  "gettable": 42182,
  "getting": 37210,
  "gew": 39909,
  "gewater": 40843,
  "gex": 25636,
  "gey": 39608,
  "gg": 1130,
  "gged": 11178,
  "gger": 26679,
  "ggie": 23571,
  "ggies": 33049,
  "gging": 18792,
  "ggle": 16444,
  "ggles": 32723,
  "ggy": 19970,
  "gh": 456,
  "gha": 46090,
  "ghai": 20380,
  "ghan": 6064,
  "ghazi": 21775,
  "ghost": 38933,
  "gi": 12397,
  "gian": 18299,
  "gie": 22699,
  "giene": 28363,
  "gif": 27908,
  "gil": 37718,
  "gin": 1655,
  "ging": 2667,
  "gins": 29878,
  "ginx": 42822,
  "gio": 27769,
  "girl": 15219,
  "girlfriend": 45189,
  "girls": 36960,
  "git": 18300,
  "github": 12567,
  "give": 26535,
  "given": 35569,
  "giving": 13992,
  "gl": 4743,
  "glas": 14391,
  "glass": 20721,
  "glers": 33641,
  "gling": 40799,
  "global": 20541,
  "glomer": 37757,
  "gly": 10853,
  "gm": 39870,
  "gmail": 14816,
  "gment": 5154,
  "gments": 11726,
  "gn": 4593,
  "gnu": 41791,
  "go": 2188,
  "goal": 35231,
  "gob": 44270,
  "god": 25344,
  "goers": 31006,
  "going": 5146,
  "gold": 24267,
  "gom": 19120,
  "gomery": 20142,
  "gon": 14520,
  "gone": 21260,
  "goo": 42469,
  "good": 11274,
  "google": 13297,
  "gor": 7053,
  "gorith": 7727,
  "gorithm": 42289,
  "got": 23442,
  "gotten": 21646,
  "gov": 9567,
  "govern": 47866,
  "government": 14480,
  "governmental": 31353,
  "govtrack": 41230,
  "gow": 21175,
  "gp": 31197,
  "gpu": 46999,
  "gr": 2164,
  "gra": 46784,
  "grab": 32393,
  "grad": 9744,
  "gradation": 26317,
  "grade": 9526,
  "graded": 21791,
  "grades": 31177,
  "gradient": 49607,
  "grading": 29247,
  "graduate": 17680,
  "grain": 48270,
  "gram": 4546,
  "gran": 46324,
  "grand": 23936,
  "graph": 34960,
  "grass": 29815,
  "grave": 41711,
  "gravity": 46453,
  "gray": 44605,
  "gre": 16694,
  "greSQL": 47701,
  "great": 18223,
  "green": 14809,
  "greg": 9903,
  "gregation": 17097,
  "gren": 32762,
  "gres": 34239,
  "gress": 5914,
  "gression": 32383,
  "gressive": 19741,
  "grey": 49502,
  "grid": 25928,
  "grim": 33563,
  "gro": 27333,
  "gross": 47181,
  "ground": 2833,
  "grounds": 40520,
  "group": 8094,
  "groupon": 14531,
  "groups": 24432,
  "grow": 45921,
  "growing": 25167,
  "grown": 22377,
  "growth": 27922,
  "gru": 48929,
  "gs": 14542,
  "gt": 13655,
  "gu": 5162,
  "guard": 14864,
  "guards": 33427,
  "gue": 18701,
  "gui": 48317,
  "guide": 41311,
  "guided": 23657,
  "gun": 7145,
  "guns": 44265,
  "gur": 45073,
  "guy": 22932,
  "guyen": 39922,
  "gy": 1360,
  "gyn": 40183,
  "gypt": 6022,
  "gz": 34586,
  "h": 71,
  "ha": 3099,
  "haar": 42948,
  "hab": 5976,
  "habi": 37362,
  "hack": 31153,
  "had": 18108,
  "hai": 44488,
  "hair": 27108,
  "haired": 29972,
  "hak": 43573,
  "hal": 14201,
  "half": 13959,
  "hall": 18323,
  "halla": 41911,
  "ham": 2763,
  "hammad": 14875,
  "hammer": 17980,
  "han": 7637,
  "hand": 4993,
  "handed": 13638,
  "handedly": 43919,
  "hander": 44510,
  "handle": 28144,
  "handled": 38788,
  "handler": 30281,
  "hands": 43365,
  "hang": 33255,
  "hani": 29839,
  "hao": 23778,
  "hap": 45897,
  "happy": 34191,
  "haps": 2772,
  "har": 9869,
  "hard": 10424,
  "hardt": 28375,
  "hare": 43466,
  "hari": 49573,
  "harm": 29155,
  "hart": 18647,
  "has": 10134,
  "hash": 17831,
  "hat": 5183,
  "hate": 37035,
  "hatt": 11653,
  "hattan": 12904,
  "haul": 15194,
  "haus": 30404,
  "haust": 42456,
  "have": 14150,
  "haven": 39487,
  "having": 40965,
  "haw": 26615,
  "hawk": 40624,
  "hawks": 27221,
  "hazard": 37598,
  "hd": 31298,
  "he": 258,
  "hea": 21632,
  "head": 2256,
  "headed": 15353,
  "header": 25677,
  "headers": 50145,
  "heading": 33878,
  "heads": 16600,
  "health": 13948,
  "healthy": 22796,
  "heard": 23636,
  "heart": 11499,
  "hearted": 20122,
  "heartedly": 44407,
  "heast": 9522,
  "heastern": 18160,
  "heat": 25080,
  "heavy": 23701,
  "hed": 704,
  "heddar": 44937,
  "hedon": 46086,
  "hedral": 21962,
  "hee": 21067,
  "heed": 23616,
  "heet": 25473,
  "hei": 27392,
  "heid": 28420,
  "height": 17015,
  "heim": 9096,
  "heimer": 16288,
  "heit": 29361,
  "hel": 2978,
  "held": 10217,
  "helial": 35566,
  "hell": 12758,
  "helle": 34454,
  "hello": 31373,
  "helm": 33485,
  "help": 16794,
  "helps": 35194,
  "hem": 4411,
  "hemat": 10024,
  "hematic": 23380,
  "hematically": 46558,
  "hement": 35347,
  "hemer": 39557,
  "hemoth": 34394,
  "hemy": 36598,
  "hen": 831,
  "hend": 15631,
  "hene": 29473,
  "heng": 31753,
  "henko": 30161,
  "hens": 5135,
  "hent": 6925,
  "heny": 47413,
  "heon": 37060,
  "her": 372,
  "here": 1456,
  "hered": 6083,
  "herence": 23545,
  "herent": 8334,
  "herer": 48386,
  "heres": 19079,
  "heric": 15011,
  "herical": 37910,
  "hern": 2881,
  "hero": 11718,
  "herry": 13372,
  "hers": 7084,
  "herty": 29029,
  "hes": 956,
  "hesda": 30049,
  "heses": 39815,
  "hesion": 32582,
  "hesis": 8497,
  "hesive": 25938,
  "hess": 33979,
  "hest": 3634,
  "hester": 19593,
  "het": 3202,
  "hetamine": 25385,
  "heter": 43332,
  "hetic": 6587,
  "hetical": 21485,
  "hetically": 31786,
  "hetics": 24965,
  "hett": 17442,
  "hetti": 33392,
  "hetto": 35619,
  "hew": 6391,
  "hews": 40645,
  "hex": 33095,
  "hey": 20342,
  "hh": 12337,
  "hhh": 49126,
  "hhhh": 36607,
  "hi": 5303,
  "hib": 3145,
  "hiba": 49224,
  "hibit": 26964,
  "hibited": 44139,
  "hibition": 24108,
  "hid": 49675,
  "hidden": 30342,
  "hide": 24717,
  "hift": 29323,
  "hig": 25196,
  "high": 8929,
  "higher": 46503,
  "highest": 35323,
  "highly": 47444,
  "hill": 12639,
  "hillary": 47826,
  "him": 38400,
  "hin": 20079,
  "hing": 722,
  "hip": 1056,
  "hips": 5748,
  "hire": 10695,
  "hiro": 49907,
  "hirt": 49756,
  "his": 14363,
  "hist": 10034,
  "historic": 31304,
  "history": 23569,
  "hit": 17945,
  "hitting": 48320,
  "hl": 18519,
  "hler": 49737,
  "hm": 23940,
  "hma": 21720,
  "hn": 21116,
  "hner": 22277,
  "ho": 8873,
  "hod": 2065,
  "hoe": 38979,
  "hof": 39891,
  "hoff": 36092,
  "hog": 31897,
  "hol": 3937,
  "hold": 2946,
  "holder": 13829,
  "holders": 10476,
  "holding": 19216,
  "hole": 13207,
  "holes": 28439,
  "holiday": 37689,
  "holm": 22981,
  "holy": 44287,
  "hom": 26452,
  "home": 11195,
  "hon": 24130,
  "hood": 2894,
  "hook": 25480,
  "hooting": 35486,
  "hop": 8548,
  "hops": 21936,
  "hor": 17899,
  "horn": 25311,
  "horse": 30527,
  "hospital": 49257,
  "host": 4774,
  "hot": 8940,
  "hots": 17398,
  "hou": 15710,
  "houn": 47714,
  "hound": 39047,
  "hour": 9769,
  "hours": 24425,
  "house": 4803,
  "houses": 20089,
  "housing": 50028,
  "hov": 28026,
  "hovah": 33023,
  "hover": 43753,
  "how": 4919,
  "hower": 33539,
  "hp": 24831,
  "hr": 11840,
  "hra": 45056,
  "hran": 16848,
  "href": 33257,
  "hs": 11994,
  "ht": 4352,
  "htaking": 34148,
  "htar": 38672,
  "htm": 19211,
  "html": 6494,
  "htt": 2804,
  "http": 4023,
  "https": 5450,
  "hu": 13415,
  "hua": 33061,
  "hub": 40140,
  "huge": 40878,
  "hum": 17047,
  "human": 10734,
  "humane": 44766,
  "humans": 40205,
  "hun": 20088,
  "hung": 43274,
  "hunt": 35060,
  "hunter": 37488,
  "hur": 48349,
  "hurst": 33500,
  "hus": 7537,
  "husband": 48912,
  "hw": 36599,
  "hy": 12114,
  "hya": 48812,
  "hyd": 15511,
  "hyde": 39175,
  "hyp": 36362,
  "hyper": 49229,
  "hz": 32179,
  "i": 72,
  "iHUD": 38370,
  "iOS": 35742,
  "iPhone": 37032,
  "ia": 544,
  "iability": 12455,
  "iable": 3379,
  "iably": 18745,
  "iac": 9607,
  "iae": 33100,
  "iage": 42360,
  "iago": 29601,
  "iah": 9520,
  "iak": 32994,
  "ial": 498,
  "ially": 1927,
  "ials": 8231,
  "iam": 1789,
  "iameter": 13173,
  "iami": 7871,
  "iamond": 8446,
  "ian": 666,
  "iana": 7484,
  "iance": 3610,
  "iances": 16097,
  "iane": 46470,
  "iang": 15483,
  "iani": 25111,
  "iann": 28627,
  "iannopoulos": 36408,
  "iano": 10115,
  "ians": 1547,
  "iant": 3014,
  "iants": 17883,
  "iao": 13481,
  "iar": 12571,
  "iard": 42425,
  "iaries": 18361,
  "iary": 8042,
  "ias": 4448,
  "iasco": 40025,
  "iasis": 48455,
  "iasm": 16401,
  "iat": 5375,
  "iate": 9386,
  "iated": 12931,
  "iates": 32820,
  "iating": 26336,
  "iation": 3920,
  "iations": 40356,
  "iator": 38585,
  "iatric": 11439,
  "iatrics": 36549,
  "iatures": 42711,
  "iatus": 34704,
  "iaz": 17890,
  "iazep": 48826,
  "ib": 571,
  "iba": 23718,
  "ibaba": 37541,
  "ibal": 21342,
  "iban": 14278,
  "iband": 35967,
  "ibble": 43992,
  "ibe": 32438,
  "ibel": 43837,
  "iber": 1856,
  "iberal": 16813,
  "ibi": 27567,
  "ibia": 41145,
  "ibilities": 7992,
  "ibility": 2247,
  "ibl": 10506,
  "ible": 856,
  "ibles": 18764,
  "ibli": 29142,
  "iblical": 16897,
  "ibling": 27448,
  "iblings": 19389,
  "ibliography": 45689,
  "ibly": 3193,
  "ibo": 26762,
  "ibr": 2889,
  "ibrarian": 35808,
  "ibraries": 11127,
  "ibrary": 4115,
  "ibu": 33828,
  "ibur": 38616,
  "ibus": 26333,
  "ic": 291,
  "ica": 3970,
  "icable": 18424,
  "icably": 41685,
  "icago": 4549,
  "ical": 605,
  "ically": 1146,
  "icals": 20155,
  "ican": 7490,
  "icans": 22398,
  "icas": 44645,
  "icate": 5344,
  "icated": 3474,
  "icates": 16856,
  "icating": 12364,
  "ication": 3299,
  "ications": 3736,
  "icative": 43058,
  "icator": 26407,
  "icators": 44549,
  "icc": 44240,
  "ice": 501,
  "iced": 3711,
  "icent": 36712,
  "iceps": 41663,
  "icer": 16647,
  "ices": 1063,
  "icester": 26382,
  "ich": 488,
  "ichael": 40302,
  "iche": 14234,
  "ichen": 41437,
  "ichever": 22617,
  "ichi": 16590,
  "ichick": 38448,
  "ichita": 41940,
  "icho": 38720,
  "icht": 30830,
  "ici": 44070,
  "icia": 33577,
  "icial": 6652,
  "ician": 6749,
  "icians": 5106,
  "iciary": 13556,
  "icidal": 21488,
  "icide": 5285,
  "icides": 16751,
  "iciency": 19777,
  "icient": 11373,
  "icing": 6345,
  "icio": 46441,
  "icion": 47430,
  "icious": 6243,
  "icip": 4311,
  "icipated": 40988,
  "icism": 11965,
  "icist": 48187,
  "icit": 3628,
  "icity": 8467,
  "ick": 624,
  "icka": 29873,
  "icked": 9484,
  "icken": 5973,
  "icker": 15799,
  "ickers": 21630,
  "icket": 9715,
  "ickets": 15970,
  "ickey": 40389,
  "icking": 7958,
  "ickle": 39423,
  "ickr": 18994,
  "icks": 3378,
  "ickson": 46381,
  "icky": 17479,
  "icle": 1548,
  "icles": 2983,
  "ico": 3713,
  "icol": 27045,
  "icon": 4749,
  "icone": 27981,
  "icons": 34280,
  "icro": 2500,
  "icrobial": 48518,
  "ics": 873,
  "ict": 713,
  "icted": 5722,
  "icter": 36278,
  "iction": 2867,
  "ictional": 47273,
  "ictionary": 14188,
  "ictions": 9278,
  "ictive": 45279,
  "icts": 14137,
  "icular": 13174,
  "icularly": 22585,
  "icult": 2249,
  "icultural": 26823,
  "iculture": 47428,
  "iculty": 22402,
  "icum": 39901,
  "icus": 24552,
  "icut": 13554,
  "icy": 4611,
  "icycle": 35298,
  "icz": 28051,
  "id": 312,
  "ida": 3755,
  "idable": 23321,
  "idad": 32482,
  "idae": 31718,
  "idal": 11624,
  "idan": 27610,
  "idas": 24496,
  "idate": 20540,
  "idated": 41475,
  "idates": 37051,
  "idation": 24765,
  "idav": 20331,
  "iday": 2567,
  "idays": 13842,
  "idd": 1638,
  "idden": 4651,
  "idding": 13494,
  "iddle": 2509,
  "iddled": 34897,
  "iddler": 26458,
  "iddles": 29319,
  "iddling": 41367,
  "iddy": 34208,
  "ide": 485,
  "ided": 1384,
  "idel": 5943,
  "idelines": 7984,
  "idelity": 23091,
  "idem": 28913,
  "iden": 14029,
  "idence": 1704,
  "idences": 44845,
  "idency": 9147,
  "ident": 738,
  "idental": 35182,
  "identally": 23961,
  "idential": 35599,
  "identified": 19107,
  "idently": 46046,
  "idents": 3231,
  "ideo": 1651,
  "ideon": 42381,
  "ideos": 4921,
  "idepress": 25895,
  "ider": 1304,
  "idered": 3089,
  "iders": 4157,
  "ides": 1460,
  "ideshow": 42286,
  "idespread": 9790,
  "idge": 3130,
  "idges": 15969,
  "idget": 17484,
  "idi": 19830,
  "idia": 38513,
  "idian": 19825,
  "idine": 39422,
  "iding": 2530,
  "idious": 33243,
  "idis": 29207,
  "idity": 17995,
  "idium": 43523,
  "ido": 17305,
  "idon": 47287,
  "ids": 2340,
  "idth": 5649,
  "idy": 19325,
  "ie": 494,
  "iece": 8535,
  "ied": 798,
  "ief": 2086,
  "ieft": 49868,
  "ieg": 15702,
  "iege": 14566,
  "iegel": 28210,
  "iel": 8207,
  "ield": 1164,
  "ielding": 30449,
  "iem": 26597,
  "ien": 2013,
  "ience": 1240,
  "ienced": 26343,
  "iences": 10035,
  "iencies": 22139,
  "iency": 6160,
  "ienne": 37938,
  "iens": 10465,
  "ient": 1153,
  "ients": 2334,
  "ier": 959,
  "iera": 41976,
  "ierce": 9798,
  "iere": 13235,
  "ieri": 29864,
  "ierra": 16367,
  "ierre": 31058,
  "ierrez": 44448,
  "iers": 3183,
  "iership": 36689,
  "iery": 23012,
  "ies": 444,
  "iesel": 29893,
  "iest": 6386,
  "iesta": 36283,
  "iet": 1155,
  "ietal": 21587,
  "ieth": 19235,
  "ieties": 9545,
  "iets": 27955,
  "iety": 1905,
  "ieu": 22304,
  "iev": 11203,
  "ieval": 14671,
  "ieve": 12311,
  "ieved": 39591,
  "iever": 47818,
  "ievers": 30296,
  "ieves": 17974,
  "ieving": 30749,
  "iew": 769,
  "iewicz": 48596,
  "if": 361,
  "ifa": 19215,
  "ifact": 29660,
  "ifacts": 37199,
  "ifax": 26590,
  "ife": 901,
  "ifer": 7087,
  "iferation": 49801,
  "ifest": 8409,
  "ifestyle": 42004,
  "iff": 733,
  "iffe": 22391,
  "ifference": 33012,
  "ifferent": 17125,
  "iffin": 42022,
  "iffs": 10203,
  "ifi": 22238,
  "ifiable": 16823,
  "ific": 811,
  "ificant": 17294,
  "ificantly": 42491,
  "ificate": 22460,
  "ification": 2649,
  "ifications": 6637,
  "ifice": 9680,
  "ificent": 21559,
  "ificial": 9542,
  "ified": 1431,
  "ifier": 7483,
  "ifiers": 13350,
  "ifies": 6945,
  "ifix": 42169,
  "ifle": 8316,
  "ifled": 47157,
  "ifles": 16063,
  "ifling": 38966,
  "iflower": 42642,
  "iform": 6933,
  "iframe": 39621,
  "ift": 2135,
  "ifted": 21715,
  "ifter": 18171,
  "ifting": 13309,
  "ifts": 19265,
  "ifty": 24905,
  "iful": 4135,
  "ifully": 17049,
  "ify": 1958,
  "ifying": 4035,
  "ig": 328,
  "iga": 13827,
  "igan": 5516,
  "igans": 34090,
  "igate": 10055,
  "igated": 26963,
  "igating": 29129,
  "igation": 7065,
  "igator": 23823,
  "igators": 25975,
  "ige": 10045,
  "igel": 47709,
  "igen": 9324,
  "igenous": 12357,
  "igent": 47096,
  "iger": 8254,
  "igers": 34984,
  "igg": 6950,
  "igger": 15249,
  "iggins": 23567,
  "iggle": 24082,
  "iggs": 20340,
  "iggurat": 44557,
  "igh": 394,
  "igham": 34000,
  "ighed": 12570,
  "ight": 432,
  "ighter": 4799,
  "ighters": 6261,
  "ighth": 10887,
  "ighthouse": 32303,
  "ighting": 47610,
  "ighton": 42993,
  "ights": 2337,
  "ighty": 14400,
  "igi": 25754,
  "igible": 26032,
  "igil": 27187,
  "igion": 17035,
  "igious": 10956,
  "igl": 38686,
  "igm": 17225,
  "igma": 13495,
  "igmat": 32441,
  "igmatic": 38860,
  "ign": 570,
  "ignant": 25114,
  "igne": 48946,
  "igned": 3916,
  "igning": 38944,
  "ignment": 16747,
  "ignore": 46430,
  "ignt": 16891,
  "ignty": 17224,
  "igo": 14031,
  "igon": 37107,
  "igor": 36274,
  "igr": 3692,
  "igrant": 9893,
  "igrants": 5663,
  "igraph": 45920,
  "igrate": 42175,
  "igrated": 38769,
  "igration": 4254,
  "igree": 41233,
  "igroup": 47875,
  "igs": 9235,
  "igsaw": 45636,
  "igslist": 40704,
  "igue": 15212,
  "igun": 50118,
  "iguous": 29709,
  "igure": 7047,
  "ih": 4449,
  "ihad": 11166,
  "ihadi": 42449,
  "ihar": 38405,
  "ihara": 45902,
  "ihil": 20898,
  "ihilation": 33299,
  "ihu": 48406,
  "ii": 4178,
  "iii": 15479,
  "ij": 2926,
  "ija": 34655,
  "ijah": 32778,
  "iji": 20770,
  "ijing": 11030,
  "ijk": 45961,
  "ijn": 48848,
  "ijuana": 5343,
  "ik": 1134,
  "ika": 9232,
  "ikan": 49894,
  "ikarp": 36850,
  "ikawa": 40398,
  "ike": 522,
  "iked": 17951,
  "iken": 29943,
  "iker": 18320,
  "ikers": 24913,
  "ikes": 7938,
  "ikh": 13848,
  "ikhail": 39065,
  "iki": 5580,
  "iking": 14132,
  "ikini": 35542,
  "ikk": 36073,
  "iko": 12125,
  "iku": 28643,
  "ikuman": 42889,
  "iky": 47536,
  "il": 346,
  "ila": 10102,
  "ilage": 50006,
  "ilan": 38239,
  "iland": 40855,
  "ilant": 37794,
  "ilantro": 48311,
  "ilar": 1794,
  "ilated": 40080,
  "ilater": 38601,
  "ilateral": 14796,
  "ilaterally": 39707,
  "ilation": 10520,
  "ild": 688,
  "ilda": 27281,
  "ilde": 44725,
  "ilded": 46158,
  "ildo": 39583,
  "ile": 576,
  "ileaks": 27983,
  "iled": 3902,
  "ilee": 40626,
  "ileen": 42236,
  "ilege": 41866,
  "ileged": 48446,
  "iler": 5329,
  "ilers": 34393,
  "iles": 2915,
  "iless": 30608,
  "ilet": 41550,
  "iley": 9618,
  "ili": 2403,
  "ilia": 17517,
  "ilial": 43475,
  "ilian": 35824,
  "iliar": 4797,
  "iliary": 28129,
  "iliate": 49826,
  "iliated": 31705,
  "iliation": 15547,
  "ilib": 22282,
  "ilibrium": 24741,
  "ilic": 41896,
  "ilies": 3922,
  "ilight": 15512,
  "iling": 4386,
  "ilings": 43271,
  "ilingual": 34900,
  "ilion": 29935,
  "ilipp": 8908,
  "ilit": 6392,
  "ilitarian": 43900,
  "ilitary": 18748,
  "ilitating": 34871,
  "ilitation": 18194,
  "ilities": 2410,
  "ility": 879,
  "ilk": 43545,
  "ill": 359,
  "illa": 5049,
  "illac": 40607,
  "illance": 7682,
  "illard": 32681,
  "illary": 15856,
  "illas": 25314,
  "illation": 40903,
  "ille": 8270,
  "illed": 2967,
  "illegal": 47749,
  "iller": 4665,
  "illery": 14920,
  "illes": 21718,
  "illet": 32512,
  "illi": 50173,
  "illian": 37896,
  "illin": 32672,
  "illing": 4509,
  "illion": 1131,
  "illions": 40083,
  "illo": 16111,
  "illon": 23027,
  "ills": 2171,
  "illus": 44342,
  "illusion": 35760,
  "illy": 6548,
  "ilo": 18526,
  "ilogy": 19202,
  "ilon": 33576,
  "ilot": 23439,
  "ils": 4487,
  "ilst": 11750,
  "ilt": 2326,
  "ilton": 9044,
  "iltr": 19438,
  "iltration": 36055,
  "ilts": 50076,
  "ilty": 6267,
  "ilus": 35815,
  "ilver": 46978,
  "ily": 813,
  "ilyn": 38020,
  "im": 320,
  "ima": 8083,
  "imag": 48466,
  "image": 9060,
  "images": 17566,
  "imal": 4402,
  "iman": 24086,
  "imar": 49399,
  "imaru": 49551,
  "imate": 1920,
  "imated": 15655,
  "imately": 3358,
  "imates": 26748,
  "imating": 39204,
  "imation": 18991,
  "imb": 14107,
  "imbabwe": 27175,
  "imble": 34477,
  "ime": 524,
  "imedia": 20626,
  "imei": 45519,
  "imen": 19027,
  "imens": 12117,
  "imensional": 16198,
  "iment": 3681,
  "imental": 9134,
  "imentary": 39051,
  "iments": 6800,
  "imeo": 47776,
  "imer": 22723,
  "imes": 999,
  "imester": 47484,
  "imet": 38813,
  "imeter": 16912,
  "imeters": 31551,
  "img": 9600,
  "imgur": 19791,
  "imi": 25236,
  "imil": 26641,
  "imilar": 49941,
  "imilation": 42963,
  "iminary": 38429,
  "imir": 13057,
  "imity": 18853,
  "imize": 48439,
  "imm": 8608,
  "immer": 10957,
  "immers": 36904,
  "immigrant": 39835,
  "immigration": 47620,
  "imming": 27428,
  "immune": 38345,
  "imo": 25147,
  "imon": 20473,
  "imony": 33969,
  "imore": 9401,
  "imoto": 43354,
  "imov": 44273,
  "imp": 11011,
  "impact": 48240,
  "impl": 23928,
  "import": 11748,
  "important": 18049,
  "imposed": 36457,
  "impro": 32077,
  "improve": 49453,
  "ims": 12078,
  "imsy": 48295,
  "imum": 2847,
  "imura": 43817,
  "imus": 20704,
  "in": 259,
  "ina": 1437,
  "inal": 1292,
  "inally": 3289,
  "inals": 6897,
  "inance": 14149,
  "inances": 34999,
  "inant": 42483,
  "inar": 22050,
  "inarily": 21565,
  "inary": 3219,
  "inas": 24252,
  "inate": 4559,
  "inated": 3898,
  "inately": 48618,
  "inates": 17540,
  "inating": 6010,
  "ination": 1883,
  "inational": 26201,
  "inations": 7352,
  "inator": 20900,
  "inators": 47721,
  "inatory": 23132,
  "inav": 26802,
  "inburgh": 22222,
  "inc": 1939,
  "incarn": 13211,
  "ince": 924,
  "incent": 42816,
  "incerity": 40310,
  "inces": 17386,
  "inch": 8589,
  "inches": 45457,
  "incial": 13744,
  "incible": 33494,
  "incinn": 15020,
  "incinnati": 15130,
  "include": 17256,
  "includes": 42813,
  "including": 8201,
  "incoln": 11690,
  "income": 12519,
  "incre": 24988,
  "increasing": 42647,
  "inct": 4612,
  "inction": 9438,
  "inctions": 31253,
  "ind": 521,
  "inda": 22261,
  "indal": 44644,
  "independence": 39894,
  "independent": 34750,
  "inder": 5540,
  "inders": 29700,
  "index": 9630,
  "inding": 6020,
  "individual": 43129,
  "indle": 42343,
  "indu": 10259,
  "induced": 17223,
  "inducing": 48016,
  "indust": 23213,
  "industrial": 31130,
  "ine": 500,
  "inea": 18343,
  "ined": 1389,
  "inel": 20538,
  "inelli": 44076,
  "inem": 7749,
  "inement": 21828,
  "inen": 42326,
  "inence": 18386,
  "inent": 7233,
  "inently": 26528,
  "iner": 7274,
  "ineries": 48858,
  "iners": 21257,
  "inery": 15451,
  "ines": 1127,
  "inese": 3762,
  "iness": 1272,
  "inet": 42504,
  "inez": 18885,
  "inf": 10745,
  "infect": 27816,
  "infeld": 47187,
  "inflamm": 29639,
  "inflammatory": 32272,
  "info": 10951,
  "information": 17018,
  "informed": 35698,
  "ing": 278,
  "inge": 11912,
  "inged": 24431,
  "ingen": 36795,
  "inger": 3889,
  "ingers": 40923,
  "inges": 26792,
  "ingham": 25875,
  "inging": 14146,
  "ingle": 17697,
  "ingly": 4420,
  "ingo": 32735,
  "ings": 654,
  "ington": 9557,
  "ingu": 6680,
  "inguishable": 41726,
  "inguished": 46709,
  "inho": 20327,
  "ini": 5362,
  "inia": 43168,
  "inian": 24605,
  "inic": 47277,
  "inical": 32352,
  "ining": 3191,
  "inion": 23971,
  "inis": 16661,
  "inished": 30603,
  "init": 15003,
  "inite": 9504,
  "initely": 12998,
  "initial": 36733,
  "initialized": 17532,
  "inition": 17750,
  "initions": 50101,
  "inity": 6269,
  "ink": 676,
  "inka": 48955,
  "inker": 24275,
  "inki": 38799,
  "inking": 8040,
  "inkle": 19894,
  "inks": 2973,
  "inky": 29246,
  "inline": 45145,
  "inn": 3732,
  "innacle": 37087,
  "innamon": 21920,
  "inner": 5083,
  "inness": 32990,
  "innie": 49708,
  "inning": 23062,
  "innon": 45067,
  "ino": 2879,
  "inoa": 40564,
  "inois": 8981,
  "inos": 11996,
  "inosaur": 21317,
  "inous": 29823,
  "input": 15414,
  "inqu": 18934,
  "ins": 1040,
  "inse": 38521,
  "insert": 28463,
  "inside": 48787,
  "insk": 35803,
  "inski": 21141,
  "insky": 19870,
  "inson": 7899,
  "inspired": 24194,
  "inst": 8625,
  "install": 17350,
  "installed": 37050,
  "instance": 39098,
  "instead": 38070,
  "instein": 11962,
  "insula": 16495,
  "insured": 28409,
  "int": 600,
  "intage": 14630,
  "integ": 18908,
  "integer": 41433,
  "intel": 48779,
  "intelligence": 32683,
  "intend": 7315,
  "intendent": 21075,
  "intendo": 8773,
  "intensity": 47799,
  "intensive": 38096,
  "intent": 48536,
  "intention": 40867,
  "inter": 3849,
  "interest": 9446,
  "interested": 34339,
  "interesting": 47914,
  "interface": 39994,
  "intern": 23124,
  "internal": 32538,
  "international": 45609,
  "internet": 37675,
  "interpret": 27381,
  "interrupted": 46037,
  "inters": 20193,
  "interstitial": 29446,
  "intestinal": 36387,
  "inth": 9304,
  "into": 20424,
  "inton": 2371,
  "intosh": 37638,
  "introdu": 27427,
  "ints": 29503,
  "intuitive": 42105,
  "inus": 35237,
  "inv": 16340,
  "inventory": 24807,
  "inventoryQuantity": 39756,
  "invest": 24859,
  "invoke": 37669,
  "involved": 44697,
  "inx": 28413,
  "iny": 3541,
  "inyl": 19754,
  "io": 952,
  "ioch": 41097,
  "iod": 2101,
  "iol": 1669,
  "iola": 30292,
  "iolet": 19194,
  "iological": 15071,
  "iologist": 31599,
  "iology": 12371,
  "iom": 29005,
  "ion": 295,
  "iona": 32792,
  "ionage": 24919,
  "ional": 1538,
  "ione": 7935,
  "ioned": 14994,
  "ionic": 26523,
  "ionics": 49900,
  "ions": 507,
  "iop": 14922,
  "ior": 1504,
  "iors": 12706,
  "ios": 4267,
  "iosis": 42960,
  "iosity": 15023,
  "iosyn": 48448,
  "iosyncr": 48702,
  "iot": 5151,
  "iotic": 16357,
  "iotics": 18296,
  "iots": 16228,
  "iott": 20773,
  "iour": 49439,
  "ious": 699,
  "iously": 6819,
  "iov": 16664,
  "iovascular": 19381,
  "iox": 12190,
  "ioxid": 26294,
  "ioxide": 16671,
  "ip": 541,
  "ipal": 8521,
  "ipation": 25857,
  "ipe": 3757,
  "iped": 46647,
  "ipedia": 11151,
  "ipeg": 21700,
  "ipel": 40634,
  "iper": 9346,
  "ipers": 29288,
  "ipes": 18636,
  "iph": 13323,
  "iphany": 49915,
  "iphate": 34981,
  "ipher": 10803,
  "ipient": 48137,
  "iping": 34690,
  "ipl": 24705,
  "iple": 2480,
  "ipment": 4667,
  "ipolar": 49133,
  "ipop": 42800,
  "ipp": 3974,
  "ipped": 3949,
  "ipper": 14710,
  "ippers": 16415,
  "ippery": 29530,
  "ippi": 12715,
  "ipping": 4501,
  "ipple": 18793,
  "ipples": 27844,
  "ippy": 41214,
  "ips": 2419,
  "ipt": 10257,
  "iq": 25011,
  "iqu": 1557,
  "ique": 2350,
  "iqueness": 46764,
  "iques": 6368,
  "iquette": 40387,
  "iquid": 6394,
  "ir": 343,
  "ira": 8704,
  "irable": 13194,
  "iral": 21093,
  "iration": 15297,
  "irc": 1980,
  "ircraft": 27002,
  "ird": 1447,
  "irds": 11049,
  "ire": 557,
  "irect": 1060,
  "irection": 4154,
  "ired": 1202,
  "irement": 24615,
  "irements": 18883,
  "iren": 24080,
  "irens": 42917,
  "ires": 2387,
  "irez": 31762,
  "irgin": 4672,
  "iri": 14783,
  "irie": 28191,
  "iries": 18561,
  "irin": 47388,
  "iring": 3428,
  "iris": 29616,
  "irit": 3276,
  "irk": 14232,
  "irl": 1901,
  "irled": 49376,
  "irlf": 9841,
  "irlfriend": 9872,
  "irling": 24297,
  "irlwind": 32785,
  "irm": 2533,
  "irmation": 36241,
  "irmed": 15491,
  "irming": 29808,
  "irms": 8789,
  "iro": 7058,
  "iron": 1934,
  "irrel": 22793,
  "irs": 17062,
  "irsch": 47108,
  "irst": 667,
  "irt": 2265,
  "irted": 48357,
  "irteen": 22530,
  "irth": 3333,
  "irting": 35355,
  "irts": 9682,
  "irtual": 22341,
  "irty": 5893,
  "iru": 35406,
  "irus": 19397,
  "iry": 9045,
  "is": 271,
  "isSpecial": 39714,
  "isSpecialOrderable": 39755,
  "isa": 9160,
  "isable": 43942,
  "isal": 28456,
  "isan": 9057,
  "isance": 31872,
  "isans": 26100,
  "isation": 5612,
  "isations": 38189,
  "isbury": 47967,
  "isc": 2304,
  "iscal": 7860,
  "isch": 25308,
  "ische": 46097,
  "ischer": 24645,
  "isco": 4861,
  "iscons": 8795,
  "isconsin": 8816,
  "iscopal": 42522,
  "iscover": 29392,
  "iscovered": 41168,
  "iscovery": 40821,
  "isd": 9409,
  "isdom": 9350,
  "ise": 786,
  "isec": 27866,
  "ised": 1417,
  "isel": 36811,
  "isen": 13254,
  "iser": 5847,
  "isers": 21572,
  "ises": 2696,
  "iseum": 38277,
  "isexual": 20863,
  "isf": 4468,
  "ish": 680,
  "isha": 19388,
  "ishable": 31785,
  "ished": 1348,
  "isher": 4828,
  "ishers": 39116,
  "ishes": 5614,
  "ishi": 21644,
  "ishing": 3929,
  "ishly": 29735,
  "ishment": 17862,
  "ishop": 10124,
  "ishops": 21863,
  "ishy": 49785,
  "isi": 23267,
  "isible": 12843,
  "isin": 45763,
  "isine": 27480,
  "ising": 1710,
  "ision": 1166,
  "isions": 3279,
  "isite": 16107,
  "isites": 31327,
  "isition": 10027,
  "isitions": 29593,
  "isive": 13911,
  "isively": 42042,
  "isk": 1984,
  "isks": 36730,
  "isky": 34041,
  "isl": 3044,
  "isle": 20919,
  "ism": 1042,
  "isma": 38017,
  "isman": 23845,
  "ismo": 44126,
  "isms": 6583,
  "isner": 49861,
  "iso": 26786,
  "isode": 3282,
  "isodes": 8052,
  "isoft": 29719,
  "isol": 30152,
  "ison": 1653,
  "isons": 9886,
  "isp": 8802,
  "ispers": 27148,
  "isphere": 22833,
  "iss": 747,
  "issa": 13808,
  "issan": 24112,
  "issance": 16419,
  "isse": 20782,
  "ission": 1480,
  "issions": 7717,
  "isson": 30927,
  "issors": 32555,
  "issue": 21949,
  "issued": 39361,
  "issues": 37165,
  "issy": 36419,
  "ist": 396,
  "ista": 12523,
  "istan": 4103,
  "istance": 9311,
  "istani": 16688,
  "istant": 10167,
  "istar": 47229,
  "istas": 37503,
  "iste": 40833,
  "isted": 6347,
  "istence": 13274,
  "istent": 7609,
  "ister": 1694,
  "istered": 23187,
  "isters": 6223,
  "istic": 2569,
  "istical": 19929,
  "istically": 16772,
  "istics": 3969,
  "istine": 32248,
  "isting": 9665,
  "istle": 12535,
  "iston": 36363,
  "istor": 32380,
  "istors": 46334,
  "istrate": 28534,
  "istrates": 37909,
  "istration": 33397,
  "istries": 32995,
  "istry": 4592,
  "ists": 1023,
  "isu": 46313,
  "isure": 20609,
  "isy": 13560,
  "it": 270,
  "ita": 5350,
  "itability": 34147,
  "itable": 4674,
  "itably": 14829,
  "itage": 10208,
  "itaire": 26627,
  "ital": 1287,
  "itals": 8321,
  "itamin": 40746,
  "itan": 18642,
  "itance": 42942,
  "itans": 43716,
  "itant": 23737,
  "itar": 7940,
  "itarian": 8353,
  "itars": 27745,
  "itary": 9331,
  "itas": 21416,
  "itate": 12027,
  "itated": 13939,
  "itates": 38654,
  "itating": 21712,
  "itation": 3780,
  "itational": 22181,
  "itations": 20597,
  "itative": 12464,
  "itatively": 48668,
  "itbart": 17868,
  "itch": 2007,
  "itched": 10981,
  "itcher": 23640,
  "itches": 9249,
  "itchie": 48423,
  "itching": 19811,
  "ite": 578,
  "itech": 45396,
  "itect": 5712,
  "ited": 863,
  "itely": 3973,
  "item": 9186,
  "itement": 12559,
  "items": 23814,
  "itent": 48324,
  "iter": 2676,
  "iterator": 48727,
  "iterranean": 19012,
  "ites": 2737,
  "ith": 342,
  "ithe": 31470,
  "ither": 1555,
  "ithering": 40861,
  "ithing": 44556,
  "ithmetic": 29848,
  "iths": 47252,
  "ithub": 10060,
  "iti": 8846,
  "itia": 36723,
  "itial": 6847,
  "itialized": 13562,
  "itially": 22640,
  "itic": 16233,
  "ities": 871,
  "itimate": 30233,
  "itime": 22552,
  "iting": 1780,
  "ition": 653,
  "itional": 1859,
  "itionally": 8736,
  "itions": 1756,
  "itious": 25253,
  "itis": 11815,
  "itism": 18937,
  "itive": 1800,
  "itiveness": 31366,
  "itives": 20288,
  "itivity": 11365,
  "itiz": 3029,
  "itized": 36951,
  "itizen": 36958,
  "itizens": 34100,
  "itle": 2578,
  "itled": 7803,
  "itles": 30540,
  "itness": 3659,
  "ito": 10094,
  "itol": 11650,
  "iton": 37752,
  "itone": 49644,
  "itor": 2072,
  "itored": 20026,
  "itors": 6742,
  "itory": 37765,
  "itous": 22109,
  "itri": 49510,
  "its": 896,
  "itsch": 48279,
  "itsu": 19831,
  "itt": 715,
  "itta": 48519,
  "ittal": 39979,
  "ittance": 47912,
  "itte": 2654,
  "itted": 2175,
  "ittee": 2979,
  "ittees": 13263,
  "itten": 2621,
  "ittens": 34978,
  "itter": 1967,
  "ittered": 36613,
  "itters": 45512,
  "itting": 2535,
  "ittle": 1206,
  "itto": 37606,
  "itton": 47304,
  "itty": 9760,
  "itu": 34272,
  "itual": 10587,
  "itud": 26331,
  "itude": 3984,
  "itudes": 10455,
  "itudinal": 29121,
  "iture": 8089,
  "itures": 20686,
  "itus": 17506,
  "itute": 3678,
  "itutes": 16845,
  "itution": 2738,
  "itutional": 5677,
  "ity": 414,
  "itz": 4224,
  "itzer": 10557,
  "itzerland": 13947,
  "itÃ©": 43816,
  "iu": 16115,
  "ium": 1505,
  "ius": 3754,
  "iuses": 44666,
  "iv": 452,
  "iva": 12151,
  "ivable": 21911,
  "ivably": 47994,
  "ival": 2473,
  "ivalent": 29540,
  "ivalry": 47310,
  "ivals": 10336,
  "ivan": 13809,
  "ivari": 35460,
  "ivariate": 42524,
  "ivas": 38630,
  "ivated": 30829,
  "ivating": 39438,
  "ivation": 26939,
  "ive": 425,
  "ived": 1572,
  "ively": 2280,
  "iven": 1469,
  "iveness": 6517,
  "iver": 1428,
  "ivered": 6396,
  "ivering": 35598,
  "iverpool": 10864,
  "ivers": 1191,
  "iversal": 11480,
  "iversary": 9023,
  "iverse": 3997,
  "iversity": 1608,
  "ivery": 6315,
  "ives": 1083,
  "ivia": 20817,
  "ivic": 16482,
  "ivid": 1699,
  "ividual": 1896,
  "ividually": 16335,
  "ivil": 2464,
  "iving": 1412,
  "ivism": 25085,
  "ivist": 30944,
  "ivities": 28720,
  "ivity": 3458,
  "ivo": 23593,
  "ivot": 45785,
  "iw": 14246,
  "ix": 844,
  "ixed": 2966,
  "ixel": 7168,
  "ixels": 14810,
  "ixie": 39291,
  "ixir": 32345,
  "ixon": 12305,
  "ixt": 6346,
  "ixtape": 43938,
  "ixties": 46550,
  "ixture": 9602,
  "ixtures": 25506,
  "ixty": 19404,
  "iy": 7745,
  "iya": 21008,
  "iyah": 46398,
  "iz": 528,
  "iza": 23638,
  "izabeth": 9924,
  "izable": 13821,
  "izard": 8669,
  "izards": 14124,
  "izarre": 12474,
  "ization": 1634,
  "izational": 22684,
  "izations": 4582,
  "ize": 1096,
  "ized": 1143,
  "izen": 33977,
  "izens": 44908,
  "izer": 7509,
  "izers": 11341,
  "izes": 4340,
  "izing": 2890,
  "izo": 41282,
  "izon": 8637,
  "izons": 29457,
  "izont": 12071,
  "izontal": 38342,
  "izoph": 18115,
  "izophren": 18337,
  "izu": 47775,
  "izz": 6457,
  "izza": 9990,
  "izzard": 16191,
  "izzle": 44461,
  "izzy": 40593,
  "j": 73,
  "ja": 6592,
  "jab": 27935,
  "jac": 30482,
  "jack": 19650,
  "jad": 38442,
  "jah": 31558,
  "jam": 39159,
  "jamin": 13337,
  "jan": 13881,
  "jandro": 47983,
  "jar": 9491,
  "jas": 28121,
  "java": 12355,
  "javascript": 37495,
  "jay": 33708,
  "jc": 48055,
  "je": 18015,
  "ject": 752,
  "jected": 35408,
  "jection": 29192,
  "jee": 34589,
  "jen": 48796,
  "jer": 44009,
  "jet": 31173,
  "jew": 47483,
  "ji": 7285,
  "jiang": 39598,
  "jin": 18594,
  "jing": 49940,
  "jit": 45051,
  "jj": 41098,
  "jl": 20362,
  "jo": 7639,
  "job": 21858,
  "jobs": 43863,
  "john": 30686,
  "joice": 41026,
  "join": 22179,
  "joined": 46416,
  "joining": 40044,
  "jon": 46286,
  "jong": 32428,
  "journal": 24891,
  "joy": 2633,
  "jp": 34523,
  "jpg": 9479,
  "jri": 38790,
  "jriwal": 39890,
  "js": 8457,
  "json": 17752,
  "ju": 14396,
  "jud": 10456,
  "judicial": 46769,
  "jug": 31761,
  "jump": 43327,
  "jun": 29741,
  "jured": 38608,
  "juries": 47496,
  "jury": 21871,
  "just": 3137,
  "justice": 31012,
  "juven": 39427,
  "k": 74,
  "kB": 38841,
  "kHz": 44191,
  "ka": 4914,
  "kai": 32765,
  "kamp": 40899,
  "kan": 27541,
  "kar": 21070,
  "kas": 42749,
  "kat": 41826,
  "kay": 5568,
  "kaya": 35372,
  "kb": 32812,
  "ke": 365,
  "ked": 9091,
  "kee": 11035,
  "keep": 14894,
  "keeper": 13884,
  "keepers": 24952,
  "keeping": 19934,
  "kees": 16683,
  "kef": 30728,
  "kefeller": 31424,
  "kel": 7750,
  "keleton": 38800,
  "keley": 13490,
  "kell": 17164,
  "ken": 3464,
  "kens": 14972,
  "kept": 45089,
  "ker": 6122,
  "kered": 28970,
  "kernel": 33885,
  "kers": 15949,
  "kes": 5209,
  "ket": 7126,
  "key": 2539,
  "keye": 34929,
  "keyes": 43174,
  "keys": 13083,
  "kg": 10025,
  "kh": 14636,
  "ki": 4106,
  "kick": 24585,
  "kid": 38439,
  "kids": 45235,
  "kie": 49375,
  "kies": 43724,
  "kil": 34553,
  "kill": 12728,
  "killed": 42130,
  "killer": 32156,
  "killers": 43492,
  "killing": 43764,
  "kin": 5116,
  "kind": 11031,
  "king": 3364,
  "kins": 5331,
  "kinson": 26030,
  "kish": 31501,
  "kiss": 41304,
  "kit": 15813,
  "kj": 42421,
  "kk": 28747,
  "kl": 41582,
  "km": 13276,
  "kn": 15418,
  "knife": 48810,
  "knit": 47095,
  "know": 16275,
  "knowledge": 45066,
  "known": 4002,
  "ko": 7204,
  "kok": 32004,
  "kos": 46150,
  "kov": 21862,
[...]
